/**
  ******************************************************************************
  * @file    network_data_params.c
  * @author  AST Embedded Analytics Research Platform
  * @date    Mon Sep  2 22:39:41 2024
  * @brief   AI Tool Automatic Code Generator for Embedded NN computing
  ******************************************************************************
  * Copyright (c) 2024 STMicroelectronics.
  * All rights reserved.
  *
  * This software is licensed under terms that can be found in the LICENSE file
  * in the root directory of this software component.
  * If no LICENSE file comes with this software, it is provided AS-IS.
  ******************************************************************************
  */

#include "network_data_params.h"


/**  Activations Section  ****************************************************/
ai_handle g_network_activations_table[1 + 2] = {
  AI_HANDLE_PTR(AI_MAGIC_MARKER),
  AI_HANDLE_PTR(NULL),
  AI_HANDLE_PTR(AI_MAGIC_MARKER),
};




/**  Weights Section  ********************************************************/
AI_ALIGNED(32)
const ai_u64 s_network_weights_array_u64[158559] = {
  0xbedc7a3bbe5098bbU, 0x3d54639cbe222072U, 0x3dd28d753cc42bcfU, 0x3f8ff175bef19ec2U,
  0x3e03a0963cb0af94U, 0xbe955672be679e3cU, 0xbf25e4a33efbb7d9U, 0xbeac99e83e591b02U,
  0xbe75db6dbd4fbde1U, 0xbf2e8cc43db3b25aU, 0xbd60d9833e80f373U, 0xbe3126f83ebafadcU,
  0xbf361b373e8e2c4eU, 0xbe9422d33db5aae5U, 0xbecc1b8f3e804bf4U, 0x3fa15e90be33bb3fU,
  0xbf1221d73d478114U, 0xbeae3d693c8ac204U, 0xbcc84bf33ef9e7d6U, 0xbf3d77703e233e2eU,
  0xbf140139bd3d8ec0U, 0xbdea26bebf235f25U, 0x3e0c79c0bdcef807U, 0x3e267ca3bdaac996U,
  0xbe9e9260bec02228U, 0x3d8b9cc3be2a6947U, 0x3ea66d4d3e1558b6U, 0xbd909a1e3edd10d6U,
  0x3e3bccde3debc098U, 0xbd8acae03e80bc3eU, 0x3ea53dc4be4315a6U, 0xbd0d0265bd355774U,
  0xbe5b59643da52ea6U, 0x3b6dcbeabec2b6fbU, 0xbdec9d0f3d51205bU, 0xbd94839b3db84b3dU,
  0x3a6ec8a1bf105d8eU, 0xbe5fb33abebdf070U, 0xbda92e893d9e53acU, 0x3ba3eb13bd82e60aU,
  0xbe8b45ea3e470572U, 0xbdd3f2a3bd195c3bU, 0x3f936591bf30926aU, 0x3ea0fbbebeae771dU,
  0x3e44deb2beb3d1f4U, 0xbf1f4145400e0423U, 0x3bb91c883ea432d8U, 0xbcea27603ebd4f76U,
  0xbf9c9a523ea9b8c3U, 0xbf1c5db8bdfcb7bcU, 0xbea961353e0abd5bU, 0x3d36a338bee46705U,
  0xbe4a093d3e1897f8U, 0xbeb5efa23e7a14aeU, 0xbf6bd6bd3f8d9944U, 0xbf0f44b93e66d4aaU,
  0xbe90693ebe30bcfcU, 0xbe9ef7793f4bf890U, 0xbe313423bce0160dU, 0xbe15c17abe30d9f8U,
  0xbf0bcb493f277e84U, 0xbe7b6dc3bd2d7da1U, 0xbe05af73be2ca478U, 0xbecdd7f23f48fed9U,
  0xbe452d09bcf96272U, 0xbbe31dc73e642ad1U, 0xbcaf51f8ba0fd3a6U, 0x3d5329ca3cfa60deU,
  0xbd51b73dbd693fabU, 0x3e158790be22122eU, 0xbd0b493e3da93270U, 0x3b00ca973db0bc3eU,
  0xbe8b4bdc3f078cc2U, 0xbd3ee2cdbd85641cU, 0xbe15c025bcd11711U, 0x3e8f49e6bea4d169U,
  0x3d9aec1cbd922442U, 0xbd0555b33e5c5bbfU, 0x3df7e2b9bc0751a5U, 0x3e542306be4977b1U,
  0x3ecc76503c2a8260U, 0xbf1cc4dc3f896e9bU, 0xbc70edfe3eb79831U, 0x3dc78353be2aac6aU,
  0x3ed316afbe921950U, 0xbe93c79ebd4199aeU, 0xbec3bdf33e2258e4U, 0xbf314208be438aa6U,
  0xbed055dd3d00abd4U, 0xbda95389be6fcbc9U, 0x3fa07451bf5ff53eU, 0x3dad1a2bbeaba6f1U,
  0xbe3e2db8be91b4fdU, 0x3e3b9cf3bf2e6aefU, 0xbd3cfb8bbea35514U, 0x3e916436bd55fb5eU,
  0x3f583d4bbe8b41caU, 0x3d824b15bdfc5629U, 0xbdfc8c73be3fc126U, 0xbed0a8773eed8e7aU,
  0x3cb67895be52de57U, 0x3dcfded4bda49961U, 0x3e946c20bf397ea5U, 0xbeca8713befb4869U,
  0xbf345327bda6788eU, 0x3d4c2c613f507c29U, 0x3e5d65d83dd1a4f8U, 0xbe9ddf8cbda5ac14U,
  0xbf9f40ae3fe65cebU, 0xbf55e2a93e3a4d7cU, 0xbf0129403e9577f7U, 0xbee6bc373eb16bd9U,
  0x3c6730483da54892U, 0xbda6ad4abd75928dU, 0xbf52b4203ecd8e99U, 0xbe775dd63e62f83fU,
  0xbd9c33be3d89b9c0U, 0xbd8250f8bd3cb6ebU, 0x3e935d253d805847U, 0xbdc54d3a3cb29f7cU,
  0xbd0920d03f2b8587U, 0xbdf3d3493e9cfc00U, 0xbea0457d3e1425e4U, 0xbf2c1b743ed8594bU,
  0xbe6e90783cc3fed4U, 0x3cb58be43e4f3ca2U, 0x3d96c538bf8ffec0U, 0xbdaf6b7ebd5fd3deU,
  0xbdcdd5363e414659U, 0xbe35669e3e526c21U, 0xbd11cf4a3ebc6512U, 0xbd196d443e7048d4U,
  0xbf621d9e3ea806b9U, 0xbefea6ec3e40363eU, 0xbeb583d13e958b6dU, 0x3f5103bfbea315caU,
  0xbde4b7adbde5dadcU, 0xbeaaebd43d3ba48aU, 0x3ded2618bf12c795U, 0x3e4c55a0bea2a846U,
  0x3cde4325be2ecba5U, 0xbe567edb3e70d7edU, 0xbe422a2f3ed9b3c2U, 0xbdf0830e3ef1fcd4U,
  0x3f79be6ebf148f6dU, 0x3e137468be8b42f7U, 0x3e6ee7b6be118d92U, 0xbe12ee48be558973U,
  0xbe4c41a7be4704d5U, 0xbea8a301bdec9572U, 0xbd94e6453e909967U, 0xbedc5f553e2a2e3aU,
  0xbe38aca4bc91a574U, 0x3f33691dbf3698eeU, 0xbe5803a4bd7249e4U, 0xbe1c320b3c965c07U,
  0xbf1728fbbe9b45c0U, 0xbe40f39dbd73e11dU, 0xbdd7e9c2be3378b1U, 0xbe055defbeda2d46U,
  0x3e195ad1be2b44bfU, 0xbe1aa89dbcc89b71U, 0xbfb5444f3ffd4525U, 0xbf19c35ebee458feU,
  0xbebaad54bf0af9b9U, 0x3f21f98dbf034c3bU, 0xbd696e783c9495dfU, 0x3e1e174d3d877d6fU,
  0xbe825f303db43766U, 0x3eb2149b3ddb684fU, 0x3d7c55a23e3f5c8dU, 0xbf1225453eb64a47U,
  0xbf02845e3ee5436dU, 0xbe135fb33db23ec3U, 0x3eaacb31be3a030aU, 0x3c6d0f4a3d4133acU,
  0xbe1e598fbe627830U, 0xbd054df2be985c7eU, 0xbf5b229fbde25b10U, 0xbf23aec53d92fbf4U,
  0xbf6f37ec3f8878ebU, 0xbe816dd2be39d5f5U, 0xbed312a6bc9bf245U, 0x3f6c0776bf55eb61U,
  0xbdee388fbe478e8eU, 0xbd8bdcc6bd4ad626U, 0xbf2924fa3f003bf1U, 0xbdcf713d3e646911U,
  0xbe0af9203e10ba51U, 0x3d3d8e10bebf223cU, 0xbd987dd6be118ee8U, 0xbeb45b6cbddc8fa1U,
  0x3d2371b73e9988c7U, 0x3e354f07be0836baU, 0x3da59b87be806f3dU, 0x3f12b4a6bebd36daU,
  0x3e7b6c83be329f9cU, 0x3e3f0ccfbdee9327U, 0x3ebe206bbe2496d2U, 0x3ec6b717bca9b1a2U,
  0xbbe02f74bcbe1a5bU, 0x3e88fab2befaa8d2U, 0x3d065073be7999a3U, 0xbdbe4b47bd717c8dU,
  0xbf415c3a3f229ef2U, 0xbe7eff333f076e8fU, 0xbe18aadb3e3dc159U, 0x3e34a808bdd4cab7U,
  0x3dac31b03d66985cU, 0x3dfe578f3e119faaU, 0xbf32c86e3f9344d8U, 0xbeb916ed3e51796eU,
  0xbe5653413e22f239U, 0x3f1d22c2be8567a1U, 0x3ee3cdec3e583f7eU, 0x3e6d9bc73e66f60eU,
  0x3d864b5abe798e9aU, 0x3d4fb021be63b79cU, 0x3e8e8b33be7dff4bU, 0xbdb4167b3f1af4d4U,
  0xbd9c1cb63f08b31cU, 0xbe579e8c3ed5e514U, 0xbe5a8033be62a6bdU, 0xbe0f4a56be3b2aa1U,
  0x3c4f8049bd332541U, 0xbd8c20243e31ab68U, 0x3d397dc9bd0c4096U, 0xbd8f8e50bd9eaea9U,
  0xbe72c07cbd219b5fU, 0x3a6e23d3beb2fd0aU, 0x3d0452fcbe74e5e3U, 0x3f1290ccbe8bfed3U,
  0x3e706716be8adcd1U, 0x3e6eb019bdd85a37U, 0x3e6b2d50bb34bf8cU, 0xbde592cd3d948a7cU,
  0xbe6e0a41be1ba1d5U, 0x3d831e17be96eefeU, 0xbe151bd3be5bde92U, 0xbd093243be6d003aU,
  0xbea158ad3e2e72fbU, 0xbe3cb4d03df521d9U, 0xbda4fb2dbd119d49U, 0x3ef598b1beecb532U,
  0x3e0de198be67cefcU, 0x3c16eecebe53bb56U, 0xbcc2bcb8beb9e8edU, 0x3ec7ed163d968318U,
  0x3e768858bdbb2c18U, 0x3e814174bec873b4U, 0x3de9e780be8448fcU, 0x3ce250f2be73bd70U,
  0x3e5528ffbeec8770U, 0xbe948b18bd6c8666U, 0xbe81b4ac3d5dc47eU, 0x3f27ffdc3e4f4f8fU,
  0x3e747dd03e39a21dU, 0x3e9d9cc33e648566U, 0x3e4f6804be1aa5d2U, 0xbd5c4ac93cc7c3b9U,
  0x3e2e5846bd1d88e2U, 0x4000a92fbf5a9023U, 0x3eccfd6ebe8ec30bU, 0x3e8bec82be079745U,
  0xbe00f824bdaefe60U, 0x3e3bb92339a78e94U, 0x3dec61c03e2168d1U, 0x3f23d63cbf6b9c12U,
  0x3e35971abe920cf7U, 0x3e2a9b57be0b414bU, 0xbd0186fdbf35b03fU, 0xbbd78700be94ed12U,
  0x3d9a0b43be4066c4U, 0xbe8f010bbe42c934U, 0xbe68558f3d335707U, 0xbe4678933d80c600U,
  0x3f21a743be1b1644U, 0xbddc67e6bd86c1e3U, 0x3d11a8c2bc8cbb0aU, 0x3e5fad56bd4e2c99U,
  0x3e8c3f1d3d0f4ff1U, 0x3e21fd973e4ab130U, 0x3e63d63fbe5e1431U, 0x3e3d335abe59eea0U,
  0xbc6df5f03db8dc04U, 0xbe84a36c3ea19bbeU, 0xbe81f513bdbad676U, 0xbdd12d8f3c0251abU,
  0xbcadcc293fa79730U, 0xbcc0a7173e1d0734U, 0xbd4df205bea7447cU, 0x3ec03563bce9bd7cU,
  0x3d8074af3dc7c0eeU, 0xbd4343053d678da6U, 0x3d9b297ebd34beb0U, 0x3d8b7cf2bc4f9625U,
  0xbe57a21b3e10dfbeU, 0x3f062dec3d0d09e4U, 0x3d20acee3e1f907dU, 0x3bcfdde9bbf1aee6U,
  0x405e95f83fe34f1aU, 0xbe980c893cb30c54U, 0xbda096f93da8c23eU, 0x3eac08723dbb16c6U,
  0xbd926d333d302afdU, 0xbd6dd03bbbc24f49U, 0x3cd25115be244bc3U, 0x3c562e323bb6bf82U,
  0xbd777ff83d295c7aU, 0x3ea4777f3e1c35e6U, 0xbdd0dd1f3d81abbdU, 0xbe17af84bcb8f8c5U,
  0xba8d1152bcdd6019U, 0x3cc03d0b3ae46a0eU, 0xbc33083cbd55267aU, 0xbdf8fddbbd430c5eU,
  0x3dba0b203d1ca78cU, 0x3d4bf6793c4d0891U, 0x3e480ee83d85e1ccU, 0xbd819e243cae1f6aU,
  0x3d13b60fbcc537bbU, 0xbe2ab6433bd4b1abU, 0x3e05eb9a3d61285fU, 0xbcfbcae5bdb46fabU,
  0x3f089889be3332daU, 0x3e804e98be587c2dU, 0xbc0a63e5be8d5a58U, 0xbe535be33e3b1501U,
  0x3c202c6e3d911676U, 0x3e9e2eeebd1c7db8U, 0x3ee9141fbf3b2cdbU, 0xbd8e9445be1e84d3U,
  0x3d5889933d866e95U, 0x3daff5d73d5a2ca0U, 0x3e7f0bd7be3a5e59U, 0xbd6c7fd1be6d6916U,
  0xbeb318ecbcbfed6eU, 0xbdb49b4bbb8a4caeU, 0xbe336e6f3e00c5b9U, 0xbc2a8e8ebe5dd1adU,
  0xbe8dd7a7be88e6fcU, 0x3d048f49be8b09c3U, 0xbf00ea41be3a73d5U, 0xbebd70033ddd6421U,
  0xbe76730e3d6e4838U, 0x3f03de4cbe022f9cU, 0x3e223fa23df6fdfcU, 0x3d980eee3da11d8fU,
  0x402cddacbf0b35bdU, 0x3ebdf712bea6142bU, 0x3d27fd76be835971U, 0xbf5dedc63ecaae71U,
  0xbec9a75e3cbf4d4bU, 0xbe7552f5bc866ee2U, 0xbf2c77e33f187397U, 0xbe9ad6be3e2f250dU,
  0xbe33d9c13e99851cU, 0xbf10aad03eb67640U, 0xbe7ac1f23dac7e62U, 0xbe8bf6d33ec19073U,
  0xbec0a1ae3e9533c8U, 0xbdd05ebdbe03a89bU, 0x3e4151f8be1adc88U, 0x3df1c78c3e9ef115U,
  0x3e3fe9153e6eaa87U, 0x3e14f3213e04761fU, 0x3de5c6b2be88ecfcU, 0x3d85f749bec5e7d8U,
  0x3da544f9be89d234U, 0xbecef5403ec13e00U, 0xbdef372b3e25147dU, 0x3e207d373d730e68U,
  0x3db24c83beb9f941U, 0x3dcbfb5dbe15a7fdU, 0xbde3147f3dc17d87U, 0xbe8bfbedbeb5cd2fU,
  0xbd8e4815be2e6399U, 0xbe222c60be3c80cbU, 0x3e62ab49bddefff6U, 0xbe86125abdfaed87U,
  0xbe4b9031bd6d17adU, 0xbd0903f9bec7431eU, 0xbe6313e43deb8d81U, 0x3d862bfeba4781bbU,
  0xbfb0dcd93fa16364U, 0xbebcca393d0bf132U, 0xbe4310b33db3b9aeU, 0x3ec7769bbef9c926U,
  0xbe2ad87f3cf6e8cfU, 0xbce9b7683e101b38U, 0x3f2dc3b73e64efb2U, 0xbd94ccaa3e6618a6U,
  0xbe1b774d3d75e297U, 0xbf8d1c413f58a83fU, 0xbe7da28bbd951c5aU, 0xbe4cb4133c59944dU,
  0xbe9d4ce03e78255dU, 0x3d20e2aabdbeb8c2U, 0x3cf64c693e188625U, 0x3d8a8051be912c59U,
  0xbd3e50c6bd76a3faU, 0x3dbd6fbb3dbedbbdU, 0xbfdcea673f34b4bbU, 0xbed957a33c55e96eU,
  0xbeab8f6f3d4ee759U, 0xbe1869d43dbbedf3U, 0xbda0137f3d734602U, 0x3d4e20e83d9c2589U,
  0x3dd459e4bd7a8975U, 0x3dae4bc0bcfbea88U, 0xbdd9aaeabd7a1f8fU, 0x3c169feb3e1ddab3U,
  0x3e185a443e8c9f5fU, 0xbc07d8b43e96bc71U, 0x3daabad33b2602c3U, 0x3d492c20bd04a2b5U,
  0x3cd1155fbd562b21U, 0x3d306239be02bb9cU, 0xbdcb46533d062f8cU, 0xbce6b04a3e1b57b8U,
  0x3d0ac2b13cff9a26U, 0x3bc58898bd60d1a9U, 0xbd403738bd7192d3U, 0xbde754ce3d3b960aU,
  0xbd9573e33b79ad89U, 0xbd3b5f573d37d157U, 0x3bfdff763d8e6308U, 0x3d68cd4fbde757cfU,
  0xbcc29513be19259aU, 0x3cd4c0adbdd707baU, 0x3c4cbeacbdcb5e04U, 0x3d4f10debc9bf13dU,
  0x3e953a89bd9a74faU, 0x3de57f39bd3c9634U, 0x3d7ffc90bdc9983cU, 0xbd1fc8fe3e942112U,
  0x3e29c7993e96b9eaU, 0x3d0c93263db271e7U, 0xbbd795cfbce75df7U, 0xbe71e660bd842455U,
  0xbe31500abd8dd917U, 0xbed8163f3e0243ffU, 0xbd49d9bcbe2d8e0dU, 0x3d43c87fbd00e66aU,
  0x3e18ac1bbe958a10U, 0x3baf145cbdb16f5bU, 0x3d823cd13c87cdc2U, 0x3eec4457bcefecc5U,
  0x3f10a3ca3e1863a8U, 0x3eff41b33e4331e4U, 0x387e54f1bdc9ed1cU, 0xbd27296abc2ff957U,
  0x3c73c8a9bda26757U, 0xbdb5e1fb3e6a2c5cU, 0x3de35fce3ea06ab6U, 0x3e01ae613e434e5bU,
  0x3e0d2201be8b2812U, 0x3ce7e96dbdad5e94U, 0x3d91a8cabe160fd7U, 0x3f837fc5bf16e29bU,
  0x3cd7b246bea90003U, 0xbe370ca4be6baf78U, 0xbecc0b16be597b71U, 0xbdbc7bd7be325db8U,
  0x3e1cbc593d2dc76eU, 0xbdf487733eeae1baU, 0xbe30a8b73ea3f76fU, 0xbe6cb6d3bc245040U,
  0x3e852646be0f7567U, 0xbef46f983c15ca2cU, 0xbc8116023be7dc54U, 0xbda8b2bbbe47685dU,
  0xbe0c4fc03bd8f2a1U, 0x3e24b8fc3e439372U, 0xbc0ee930be17d65eU, 0x3d87ac5abdf8a4a0U,
  0xbcf10b43be3d89b2U, 0x3e90d19bbf16ad73U, 0xbe08ad1bbe8181f3U, 0xbe087988be00a50cU,
  0xbe9ce9a0beaad651U, 0xbc6b95a7be771871U, 0xbd055551bcee6a09U, 0x3e8360263f32c7deU,
  0x3e66ef243f27a554U, 0xbd7630813e342dbdU, 0x3d8818f7bd3521b9U, 0x3d907c88bd1ef05eU,
  0x3e3a8867bddfd5f9U, 0x3c4b8dd33d6890aaU, 0x3cc297ddbd355a21U, 0x3db66315bd6a69e1U,
  0x3cb07e7e3d5161d7U, 0x3da60edd3c26acceU, 0x3d3e636f3dc72c1bU, 0xbcd07d6a3e54ab06U,
  0x3d581e193d8880edU, 0x3dd5891c3d28ec9dU, 0xbc773ebebd10dc97U, 0xbd9d01993d8eac7dU,
  0xbd04703e3e07654bU, 0xbda4bcaabd5ef6d9U, 0x3d0b09443c420777U, 0xbd482c2e3df25523U,
  0xbd9f1f5bbccccd62U, 0xbdb470a63cfac4a9U, 0xbcaedaec3d926f05U, 0x3d965e75bd3d24abU,
  0x3d92c4bdbc03754eU, 0x3da5ccb1bd5e21efU, 0xbcf71d65bc408107U, 0xbd2d294dbde73ed6U,
  0xbd62f3d2bd8548efU, 0xbd9366263e48c21cU, 0xbcf46e9f3c47e74bU, 0xbd23aa813bdaf433U,
  0x3d34dfcb3b535a10U, 0x3c8e9ecf3d1ad5a8U, 0x3d9473613d92253aU, 0x3d158e41be0d622fU,
  0xbba819b6bd09bd73U, 0x3e348fc9bcac28ceU, 0x3dd528973cc29a0dU, 0x3dfcd7d33d8aebffU,
  0x3dac289d3e4878ffU, 0xbdac53af3dde661bU, 0xbdb041103d574a61U, 0xbdceab28b9d37f62U,
  0x3d9ceaa53cb1c026U, 0x3d578cbe3cfc05b4U, 0x3ce30edd3c79a9b6U, 0x3deb30e23d8e74ddU,
  0x3daf48623dcff5dfU, 0x3ccd761f3de254ffU, 0xbe25c692bda5486aU, 0xbd822414bda2ba8aU,
  0xbd9884153c8e4179U, 0xbe0dd9373a85d305U, 0xbdb6011abc77e539U, 0xbd62c32ebd8a189eU,
  0x3ed54a4cbede5931U, 0x3edbcd30be50eaaeU, 0x3e2957a4bdfe6bd8U, 0xbdd7241ebecaaed5U,
  0xbc7728f8be05ac8aU, 0x3d93b3fb3dc7e4e6U, 0xbfa407b23f577ef6U, 0xbf18e4973dcfbbb8U,
  0xbecd8d013e0cce82U, 0xbe966790bf146c5eU, 0x3e1d4c6d3cc05523U, 0xbe5f11e93d5723e1U,
  0x3fdfce07bea19888U, 0x3e8a80dabd873564U, 0x3e657a3bbd93f82aU, 0xbf57efd73eda5c65U,
  0xbeaadf213cbdfe8bU, 0xbe7dfcb93bed3a99U, 0x3d312bde3eff5100U, 0x3e0e2f233d49bc7aU,
  0x3e2e9d14bdb8383fU, 0xbf07ba273db144fbU, 0x3cde63b73e0810a0U, 0xbd578dc23cd1e0feU,
  0xbfdef9d63f52e0c0U, 0xbf60c8a83e606246U, 0xbf523d4e3db2d8ffU, 0xbe50c63fbe25032dU,
  0xbde3820cbd5fd3bdU, 0x3c2460b93cc3aacbU, 0x3d37c70bbe3fa7a7U, 0xbe7c03f7bcf85d09U,
  0xbe6e45c7bce3b6b5U, 0xbd8a199a3e06c456U, 0xbdc439273d8d0c1aU, 0xbd8f8e4c3ce3c651U,
  0xbe0251c5bd00229fU, 0xbd7332babe675fa5U, 0xbda4edafbe4bd5b6U, 0x3c52e81a3d80a996U,
  0xbd5638ac3d78612fU, 0xbd59d2053c259c16U, 0x3dc5d27abc8c1b98U, 0x3e5dbe913bd207eaU,
  0x3eb495d43c7a5bffU, 0xbd17c00ebd3f9fe6U, 0x3e29ec34bad232e4U, 0x3e48626a3da9e0e9U,
  0xbd2883f03e26f0c5U, 0x3dde8a0f3eaa1927U, 0x3da4e0d13e631228U, 0xbe364239bdbe685aU,
  0xbe0d710d3d933016U, 0xbe1c65403d4aeb16U, 0x3eb92c7cbef7fe69U, 0x3e80ed1ebe04360eU,
  0xbd0c8871bde6c2c9U, 0xbe166ce63ded358eU, 0x3dac01e3be39623cU, 0x3e82ecf2be39e8c8U,
  0xbed3fa2bbe800cabU, 0xbda942f6bec3c049U, 0x3c6e96743d83fc52U, 0xbee0a6db3ed034e4U,
  0x3e100d21beaa2745U, 0x3e2ae4193ba6eb07U, 0xbf222360beafb4fdU, 0xbe8b8491be0fcd27U,
  0xbc85dca9bdc3af1fU, 0xbf08d6b83dbf3b13U, 0xbe96fc5bbe7a6f5dU, 0xbe00dd043d5eed50U,
  0xbf06f724bee17ef2U, 0xbe0e6f83bdd90465U, 0x3aaeaabc3ea8d4abU, 0xbf13bb9d3f21e3d9U,
  0xbe5df9d1bda3c592U, 0xbc149387bd8480f1U, 0xbed5bc0abedc7a31U, 0xbebe3115bdc42730U,
  0xbddc78bbbd85adc4U, 0xbe3523c83ef53898U, 0x3e0fecaf3ea005fdU, 0x3d922f2f3e9cc4deU,
  0xbcb75fc83e3682f9U, 0x3daef9eb3e2b8855U, 0x3db1d940bcecc7d3U, 0x3ecf19d4be1ec9b9U,
  0x3e76f07fbde55d57U, 0x3d52e4c53c2af51dU, 0xbe6dd48a3e037612U, 0x3db87ed9bdb54bd8U,
  0x3e4b6a863dcd5b91U, 0xbeb194d83eb64d75U, 0xbe32bf753dae2843U, 0xbe8025c1be075340U,
  0x3e4d380cbd91c6cdU, 0x3e79324f3d996756U, 0x3e1a654e3df0d572U, 0x3f110484be2b57e5U,
  0x3d32c063bc98c453U, 0x3dec02993dae5ec1U, 0x3edc8e11be69f59dU, 0xbe98857dbccca166U,
  0xbe36cde33b19adafU, 0x3ef43b72be2c4b70U, 0x3c254406be2c0e2eU, 0xbcc058bfbe4a5b2aU,
  0xbee3a6213d0e3786U, 0xbe6bfe973d008c75U, 0xbe4cf24ebdb024b7U, 0x3eda0f08be85f604U,
  0xbe4b168fbe2f8a50U, 0xbeb8c7d33d71874cU, 0x3ec56f80bd02fcb3U, 0x3c88fb133e3b98e8U,
  0xbe704b143e29b502U, 0xbe8308733dea6274U, 0x3d874bd6bcdd6296U, 0xbeb93bf8bd899d7fU,
  0xbe4cf3d4be3fc410U, 0xbcf92908bd82ce6bU, 0xbdf6b2873e7cb310U, 0x3f42e85ebf01d3c6U,
  0xbf287d913daf1492U, 0xbea33e003dfcdba5U, 0x3f68a1bfbfd7ca82U, 0xbe4fef39bf199f97U,
  0xbd78bea7be963d76U, 0x3f910669bf800131U, 0xbe5fb45bbebfbbf9U, 0x3d8d1e18bd95edc9U,
  0x3fe7e2e6bfaa4a06U, 0xbed295adbf26dbe9U, 0xbe43b856bea6d2a1U, 0x3df2ac37bf043ea5U,
  0x3e5be3dbbecde86eU, 0x3e101b49beab4154U, 0xbdf7f2393ec1b823U, 0x3c9041993e950bd3U,
  0x3c981a0f3e6705b6U, 0x3d4e3cd4be28ef56U, 0x3c9cb6b0bdff0936U, 0x3d6778ae3c35cee3U,
  0x3e8e1fff3e2855b7U, 0x3f0a427e3e46e8e5U, 0x3e91d4493e17b635U, 0x3e046ec33dffba43U,
  0x3dd597cebe21aa25U, 0x3e0fe372bd4c6dddU, 0xbecb29b33de58fdfU, 0xbe0878eabde29200U,
  0xbe08a24fbe534a8aU, 0x3ef002a5bd6d7aa5U, 0x3e2b245a3d58adb7U, 0x3cfb4a3e3e3e4fdcU,
  0x3ebee9b5be250f9cU, 0x3caae980be0b08feU, 0xbd37c7273d740f4cU, 0x3ed606c4bedd09e2U,
  0xbc80b08bbec355f3U, 0xbd82b1e9be3e7b2bU, 0x3eee5646bf47f9e6U, 0x3c25cc7ebd9adf07U,
  0xbd17f8fdbda7fa30U, 0x3da18160becc3c02U, 0x3def6a1d3d9b520aU, 0x3b90cd01bd15e73cU,
  0xbeff5ac13efeb24dU, 0xbe72daba3ee7e43eU, 0xbdfc0c153eb32564U, 0xbeadbc363f513827U,
  0xbc3ebfdf3e98c5a9U, 0xbde9bc2e3e5ae243U, 0xbd3a93ef3dbb36cdU, 0xbcd280a9bcec1559U,
  0x3ded945d3ba23ebdU, 0x3f23ef4ebed421b4U, 0xbc4a16bfbe26053dU, 0x3d87e26e3d34a32bU,
  0xbf643a4cbe91a3fbU, 0xbec0655cbd74a5e0U, 0xbe0fe6e7bce3835cU, 0xbeeeb5403edbdbb7U,
  0xbe25f8c63d089611U, 0xbc4d97843c1bffa0U, 0x3f34e2b2be508168U, 0x3e021dc2bde67cc0U,
  0x3d4806893e0c198fU, 0x3f525956bf41b7faU, 0xbde8e803bef3f8fbU, 0xbe60f9cebea28a36U,
  0xbe23ba40be8fa2acU, 0x3d1056293e15b416U, 0xbd01b9783d026762U, 0x3d89e79dbdeae147U,
  0xbd6f63d6beb2f05dU, 0x3bd584cbbe5a5084U, 0xbeef02943ef04589U, 0xbe3fc9de3dbcfcd1U,
  0xbe84ddebbddd0e39U, 0xbdfbd0ff3f3a2d3eU, 0xbe46d5fe3e0ad5dbU, 0xbef61fc93df0a917U,
  0xbe160837bf1eafd8U, 0x3da7b35cbee7a29cU, 0xbd18056cbe9849cdU, 0x3d084fce3edfb0deU,
  0x3d0230f23e540a91U, 0xbe42771cbd313213U, 0x3f13e0c83cfae79fU, 0x3e3bf2703d9e2bc4U,
  0xbe3e4f333e625d3dU, 0xbed76ac5bef28429U, 0xbdc13f43becb4c51U, 0xbdfce3dabe8e9db5U,
  0x3af7c42fbc9ef5dbU, 0xbd843df6bc4299daU, 0xbd0e6b6bbd48df4fU, 0xbbd09607b99a3de5U,
  0x3d0670cabbbb9899U, 0xbcb962cf3d4024a3U, 0xbc174ac6bc7b804eU, 0x3c85dc923cd1d594U,
  0x3bbbb3db3b24f926U, 0x3d65f444ba991330U, 0xbc4b1f033c7b2830U, 0x3d9022c53d3fbef2U,
  0xba07b04b3b85d582U, 0x3b0bab50bc9e9005U, 0xbb8775e33c16c56aU, 0xbd02411dbc39df28U,
  0x3c0da5dc3c3e9a38U, 0x3aa9124d3d36d9adU, 0x3ccff0b0bc5bc06fU, 0xbd98e7bebd05a626U,
  0xbcf7695dbd676d65U, 0x3c69d53ebc7b8c6dU, 0x3cb0da983bafa187U, 0x3cb1a4403cdfb277U,
  0xbaf29f5dbc5278e4U, 0x3b1ef401bbfaa48aU, 0xbc6bb66f3d1d7b1dU, 0x3f65a07fbf051c8aU,
  0xbea31135be4be623U, 0xbee9eab73c9ca556U, 0xbdcdcfe83dc044a6U, 0xbe3be5cb3e44ba84U,
  0x3d2d02553e2bcf86U, 0x3d60cf3dbd57fa88U, 0xbe634aa9bea575c3U, 0xbe151b90bc8a2974U,
  0xbecf492ebeb89290U, 0xbeada1d5bd80dbbdU, 0xbe85def9bda817bcU, 0xbe07a021bdc957a4U,
  0xbebc7053be150416U, 0xbe83445d3dcc5d7aU, 0xbed3d4573c5a22ddU, 0xbe8337883e8c3c33U,
  0x3cb865893e091d74U, 0xbeab82be3f1ed727U, 0x3de0b7853de54c2fU, 0xbc32f743be379861U,
  0x3ecff0d4bec56443U, 0x3efc2c18be81a334U, 0x3edd244bbd731ea1U, 0xbf13f8703e9a2b55U,
  0xbd4ba3ba3e563920U, 0xbc1401923c98b286U, 0xbcc90feb3de0ebc4U, 0x3d03e0d43ddd6297U,
  0x3d7b92ed3d167987U, 0xbddaa0423d4399e7U, 0xbdcd7248bd66853eU, 0xbdb0339c3c84dbbeU,
  0xbd852ed83d4e7fe8U, 0xbd1338e63db6a50aU, 0x3d32ee093e4ab25aU, 0x3ced7aff3e7e1e37U,
  0xbcc5c1613e3b2780U, 0xbddba7883d6e3802U, 0xbd739a383c844e84U, 0x3d9bcf60bd4498abU,
  0x3de8196cbd45c4f6U, 0xbd4e55e93dea9975U, 0xbcd7a3343dfa5735U, 0x3c9489a83e4e344aU,
  0x3da5beba3dd94e02U, 0x3e00d74e3e034181U, 0x3e01f4843e50c002U, 0x3e28b16dbd9b50c7U,
  0x3b7159a1bd1711f2U, 0x3c96de60bd16aa2fU, 0xbd80def73cb28c60U, 0x3d08068dbd075cbeU,
  0x3dacea52bd23d65dU, 0xbf04c460bf336fb1U, 0xbeadbcd5bea43db6U, 0xbe2d9849be9ec4c9U,
  0xbee83cb03f3d032eU, 0xbe9f05dc3dc682a9U, 0xbe17ed15be43631eU, 0x3ed50b36bf07cbf2U,
  0x3de416dabcbe7eb8U, 0xbc7a7d7c3e439cf0U, 0xbf0165df3e2b59adU, 0xbebc6c1ebe70a30cU,
  0xbe719e3bbeb41da4U, 0xbee9ea663e121441U, 0xbe412b3d3e91ea64U, 0xbdff402b3c934c69U,
  0xbf17b3c83deef8d9U, 0xbe668cd73dfcb433U, 0xbe4fe59c3e1084efU, 0xbe436a7bbe4f52d8U,
  0xbe0966e5bddfc1b2U, 0xbe190a4cbdde5fd0U, 0xbe165b61bed9974dU, 0x3d759c34beaff574U,
  0x3d84749cbda16fc5U, 0x3e25cfa63f4833c4U, 0x3f157b4c3ec83677U, 0x3ef98e3b3e4c4de3U,
  0x3ddc6c6bbee4a8ebU, 0x3d5bb5a03d99e4e7U, 0x3e14f20d3e9532beU, 0xbd8613563ec41c8bU,
  0xbe22c859bda67704U, 0xbe07c53dbe422018U, 0x3d4a53a33f129e27U, 0x3e22b9d93e07cb11U,
  0x3d89eb1fbd4c9dcfU, 0xbe44d1da3f87db3aU, 0x3d00f3d23d42b02aU, 0xbd1e951dbdc1e514U,
  0xbef978973f5d0e08U, 0x3e024202bd2fc823U, 0x3dbc66393c63ed4bU, 0xbf82065b40a427fcU,
  0xbe43f542bea54cffU, 0xbeaaa213bec21b55U, 0x3ead08febef01f66U, 0xbd4896303dde4a7aU,
  0x3c9e6f343de1ed98U, 0xbdfa17393f01be97U, 0xbe0b071b3da1497dU, 0xbcba08e5bdbe6549U,
  0x3e38bb103ef58247U, 0x3d940f68be0c8e04U, 0x3d3c8a14bd3f2ce5U, 0xbf7a4702bca2f3dcU,
  0x3e9ff0c23c566701U, 0x3eb40be83e2dc69bU, 0x3fa4adb5bfb1a292U, 0x3e767542bde733c6U,
  0x3e09b7e1be2756d8U, 0xbf1ac814bed91ff4U, 0x3ee03adb3d3fd7a3U, 0x3ed115583e74dff3U,
  0x3f7892ebbfa1ff06U, 0xbccc8e51bedca564U, 0xbe28f48dbd1d8b2aU, 0x3fa3bbafc0055b90U,
  0xbebe06ecbf98cc1eU, 0x3d99e9c4bf58c010U, 0x3fa559edbf88f834U, 0x3d783c09be2ad241U,
  0xbe50ea973e052b9bU, 0xbf1739ecbee7955bU, 0xbe101f663d46e0a2U, 0x3ece82e53c519417U,
  0x3f86e1dabf349aa7U, 0xbdff72453e5ea5f8U, 0x3ca8f67e3e4611a4U, 0xbf9019f53e4a788dU,
  0xbd5b207e3c38f005U, 0x3da1211cbd8ff696U, 0xbd1211843caa9fa4U, 0x3ccd257f3d2917b5U,
  0x3d8312ca3d24265cU, 0xbc3ca665bc599939U, 0xbc6cc2bd3d4a5c33U, 0xbc03bfdc3d1443d9U,
  0x3d9086c1bd480e8cU, 0x3d957547bb8bdf56U, 0x3c976337bd288eb7U, 0xbc987d283aa8b598U,
  0x3c4e50c2bc0c44a7U, 0x3d81a0f9bd0630b5U, 0xbd0b4ccabcd1a56fU, 0xbc650a2abc23642cU,
  0x3c8cbf533ca2f2bfU, 0x3d623d383d168545U, 0x3be90bed3c53cc9cU, 0x3cac0d223b7d42a6U,
  0xbd634e283dc2fda7U, 0x3c9031cc3d630353U, 0x3d97a42f3dbf3ea8U, 0x3d3f58d1bd048726U,
  0x3d7b599a3d2a6bd9U, 0x3dc9fd793d03d45cU, 0x3d3e5ef43d3228b9U, 0x3d76aaad3d3fee2fU,
  0x3dada2b93b12fd72U, 0xbd9e6aa03e0b9e69U, 0x3df94d2b3e1100f5U, 0x3d08a2453e1cdde2U,
  0x3e064587bd88ddc1U, 0xbd8cbc6a3dd4ac6aU, 0x3d0d555f3df8eae9U, 0xbd2c4b85be2f2f7cU,
  0xbcb9faf2ba899c08U, 0x3ce248103d5a8f3bU, 0xbd31ffa93d494cb7U, 0xbe0b76db3d2ecd06U,
  0xbd7dd914bdc38aa1U, 0xbd97986e3d075dabU, 0xbcb82f143d243628U, 0x3d073aac3d11d9dbU,
  0x3c84e576be5b39c7U, 0xbe0c4203be2d4b1fU, 0xbe13acf6be06ef31U, 0xbd8515053ccddf29U,
  0x3dd6de21bd5d5816U, 0x3e2efadcbd1e72a7U, 0x3daa87d53d2d95cbU, 0x3df29a2d3dec9d57U,
  0x3c96536c3d0374f1U, 0x3dcc0e97bc8c8dbcU, 0x3e96781d3d797381U, 0x3e3e37743d22af16U,
  0xbd8c20cdbd5bb050U, 0xbd4684f13ccc45ffU, 0xbdd6306cbda27a74U, 0xbd825e7fbbce8db3U,
  0xbd12b1053d5ae891U, 0xbb436ca53d9ccee4U, 0x3e148947bb44e8bdU, 0x3e452fd2bc5cb9a3U,
  0x3d55055fbcee80ceU, 0xbe016692bccd11b8U, 0xbd514f793d14a831U, 0xbd40331c3e32a651U,
  0xbdef7017bd138df3U, 0xbdab3b393d4bd710U, 0xbd1f0d723cd61f98U, 0xbb758989bc25a788U,
  0x3c0a82a53d004feeU, 0xbd10fcfa3da51fa6U, 0xbb9f72f43c177035U, 0x3dc63ce93d25ec78U,
  0x3cce9023bd22013eU, 0x3d38354abc581f09U, 0x3de17e453d5ae02dU, 0x3e0e48853d8ed0b4U,
  0xbc48c3ed3d472114U, 0x3d0b14903d9a092bU, 0xbd6bf9113d282ddbU, 0x3f49f384bf833ed3U,
  0xbf1f6e78bf2aee12U, 0xbe2f9064befd80ffU, 0xbecd32c83d95a976U, 0xbd3c18693de3fb1dU,
  0xbe344f45be835644U, 0x3e33163fbe7f0869U, 0xbe641d06be57669fU, 0xbed07d9f3c6197bdU,
  0x3f33c0e6bf08a0f0U, 0x3eeb4f7ebe942938U, 0x3ee7c6f5be81cf1fU, 0x3da8b8353dbebe15U,
  0x3db403dc3dca8052U, 0xbe090b7fbd6afe27U, 0x3e160f8c3ee8ea7aU, 0x3eb413143e81ddeaU,
  0x3d5ff087bcaa7bc2U, 0x3f41da9dbf738c09U, 0xbda7d739be9c4b19U, 0xbe10b6debcfb88c0U,
  0x3ea9dc9dbeb65be0U, 0x3e93ece7beb13b1eU, 0x3eb6c0f1bda0a0cfU, 0xbeb1d6edbde41db8U,
  0xbe040842bdbb1f7aU, 0xbe09b5d1beb7227cU, 0x3efe78363e130010U, 0x3be9c2b1bea87c20U,
  0xbe38cde3bed0174fU, 0xbf12641e3cdd4e6dU, 0xbceb9cb6be186a43U, 0xbd9915bcbe80f250U,
  0x3f815effbf276a8dU, 0x3e1d87d4beb9640cU, 0x3b050cd2be7e0aa4U, 0xbe86ca983ddeaafdU,
  0x3e5ee5ffbe297931U, 0x3e56887cbd92337fU, 0x3eefab44bedc2ee0U, 0x3e4f54f8be787e0fU,
  0xbce9f36bbebd4161U, 0x3eed25dcbee7a056U, 0x3e97e219bc2dd39fU, 0x3e94e7eb3b125957U,
  0x3ec9782dbe3c6055U, 0x3e64b3c9bd438db4U, 0x3ec5fba8be29c14fU, 0xbec28c963e9f243cU,
  0xbcd5f2423e1c61e9U, 0xbdba446fbd30830fU, 0x3f8bc29fbf2b97c4U, 0x3e33cbe4be8dfc61U,
  0xbe487e95bdf3906eU, 0xbd7110893d199275U, 0xbde6d5003da5f845U, 0xbdd76f58bd0bc624U,
  0xbd1995223ccb3b24U, 0xbd1455d73dce4871U, 0x3e1bdf8d3de991a7U, 0x3d84c1debd83a8f0U,
  0x3cc54d883cf97c32U, 0xbd1b07ce3dc53d0cU, 0x3dc3ec653dc029f6U, 0x3d77c9033dca54d1U,
  0xbdc72c9d3e2684ddU, 0x3da0f8cd3dd09986U, 0xbe2023173db669f1U, 0xbdb57136bd5db94eU,
  0x3c70d5c8bdab0c47U, 0xbe1544f3bdbc096bU, 0xbda73e333c6b662cU, 0xbd380bac3c834bb7U,
  0xbe0fba5f3d96f50bU, 0xbe2fee6f3dffae83U, 0xbd217dc2bad6a7ccU, 0x3cf9237c3bd5ce4fU,
  0x3c93d9e33e1cb5deU, 0xbd8d86a33c45e075U, 0xbded6bce3df73dc9U, 0xbe0a337b3e33f763U,
  0xbdcbcb5e3e046464U, 0xbd82c21e3d47d5e0U, 0xbda23cd93e331576U, 0xbd15b746bdd96cc4U,
  0x3e2e5eb63d3469e2U, 0x3d807ec23da74dcfU, 0x3e3f469dbeb3b113U, 0xbccfc741be1a160dU,
  0xbdd9ac4bbdffda53U, 0xbd6129983e978638U, 0x3c1ded303e7db230U, 0x3dd014203e42e770U,
  0x3edd818bbd198365U, 0x3df8cf72bd858837U, 0xbc16e8083e0a6c0aU, 0xbe4fb472bc06edb6U,
  0xbc8066d13cfcdb36U, 0x3e15c1823e0a0a7aU, 0x3e547430bec30bfbU, 0x3d3dc182be64d3f9U,
  0xbdfd1b59bda2aa49U, 0xbd035385bd66455dU, 0x3e062af43c0a903dU, 0x3e541f8b3e6024cfU,
  0x3d00b9bb3dd749cdU, 0x3c2beae63d920cecU, 0x3d59fd693e0044aeU, 0x3ca695d8be6a4519U,
  0x3df52cd1bdf5491aU, 0x3d5b929fbdc4667fU, 0x3c4537fa3de0d981U, 0x3ca9c3633e008e7eU,
  0xbd560aa03e180717U, 0x3dca673f3ce6cb29U, 0x3dad75a4bccc276bU, 0x3e41ed5b3c7eaccbU,
  0xbd9125d5bcaabc3dU, 0xbb084957bd5a819fU, 0x3d0366723d6a2dfbU, 0xbd88617e3d27d510U,
  0xbcd6673e3d97a69eU, 0x3c805afe3e955053U, 0x3d1bf08d3cae3417U, 0x3c8bd8573d2d5ee0U,
  0x3de837533d9068a4U, 0xbd0ea4dc3e50528fU, 0x3d9cfe763e162775U, 0x3e0acbda3de70aa2U,
  0xbd75dd73bdd3267eU, 0xbd7eedebbd8a99adU, 0x3c0ce136bd45c343U, 0xbd9dc1da3afbac99U,
  0xbc717ac93d4b1085U, 0x3dbef6ca3ca3a324U, 0x3f1ac0e03d76b55cU, 0x3ee8e308be3dec25U,
  0x3f25aa4c3f574b71U, 0xbf7569a13f33cbb8U, 0x3f50a598bd66fe2aU, 0xbee4336fbe537fe4U,
  0x3ec1bb0e3f829a27U, 0xbc9497383ee5ef5eU, 0xbe8a37debf1a3e0cU, 0xbe03de90bd35237dU,
  0xbe48c6223ea92fc6U, 0xbf28893e3f2c4a22U, 0xbf3d39533f3ca414U, 0x3f045bf23f36a03fU,
  0x3e298dc23c7ab16dU, 0x3dcb2b62be9cb91fU, 0x3f278aa5bf7718c1U, 0xbe096711bdf2218aU,
  0xbdb46f1cbd557ddcU, 0x3cc0c466bef9dd00U, 0xbe3ae296bea361aaU, 0xbcf33b403db58ed3U,
  0xbd4914febd41da93U, 0x3da79342bd85bf87U, 0x3cd16c2b3c996befU, 0xbcda0b1dbd3968baU,
  0x3d21249e3cd4d1f6U, 0x3b83e25ebd747c1dU, 0x3b20606d3d1335ebU, 0xbb3ab292bc89c0d8U,
  0xbcad32bc3b82d293U, 0x3c70e9d23d8944b9U, 0xbd1825f53d56612fU, 0x3d3622ce3cac45a9U,
  0x3d1af3063d543363U, 0xbccd13313a06800aU, 0xbcdb8014bc87b2ebU, 0x3c6ab6d73b1a028cU,
  0x3c5879333a14815fU, 0x3d19c6eeba04d34bU, 0xbbf3dbdabbb05c31U, 0x3c532202bc305983U,
  0x3bae23a33d077293U, 0xbd817ee4bbaeb3ecU, 0x3d25d7f03d06c493U, 0x3c20501ebd47faf9U,
  0xbd9936353d634ce2U, 0x3d5f54e03b89ae84U, 0x3d3689bb3cf1ff9dU, 0x3be5b0ac3c677a19U,
  0x3d1458c03ce6025aU, 0x3c4ae608ba203a0cU, 0xbc8bdea73cfff598U, 0x3c999c173d7737ccU,
  0xbcb32a56bc80619dU, 0x3ce027d63ce97482U, 0x3d20447bbad8e81eU, 0x3d13f732bb84e388U,
  0xbd0f748d3e02f778U, 0x3baf67b838897c73U, 0xbaea28cd3c07c37fU, 0x3a46a719bc0c6568U,
  0x36758bac3c793bccU, 0x3cc4c918bce5fcc4U, 0x3cb65a413cdd7ae0U, 0x3b31767d3d900454U,
  0xbcad945a3df0c3c7U, 0xbd00c2a93cf54abeU, 0x3cfc1cbabc0187feU, 0x3de8879fbce89d6eU,
  0x3b881313bcf8414fU, 0x3b949cdb3d181213U, 0x3b1613b6bb765236U, 0x3b9055bdbd1e458dU,
  0x3c668ad2bc11f9c6U, 0x3719db773b822f4aU, 0x3d070535bc7cb6e5U, 0xbb8c216ebb58b753U,
  0x3ceb1b9cbc98c75dU, 0x3cd85306bdc0ffb4U, 0x3b6d4488bc2ac9a9U, 0xbc98b04a3869dda3U,
  0xbcaa32b53c47df4cU, 0xbc9e36e03bfb9400U, 0xbd006109bd211d5fU, 0x3cab902ebb3bdc7bU,
  0xbcc98e32bc9524aaU, 0x3b216877bd58c49bU, 0x3daa43fe3c931af6U, 0xbd40af6cbd31fefaU,
  0x3d6ae3aabcad9156U, 0xbc0c92c9bdaa2ee6U, 0xbc50a42bbc714306U, 0x3b82c2c2bc74010eU,
  0x3a32da34bd541bb5U, 0x3d481de8bbb7127bU, 0x3bebae623c9aa752U, 0xbc33e4a33c8022beU,
  0xbd1254f8bb62bb5fU, 0x3b15b6d5bc8bd385U, 0xbd4d12ecbd9a88d8U, 0xbc270694bc007219U,
  0xbd7640c2bbcbe506U, 0xbc90dc6f3bdd439eU, 0x3c8a7456bcd3c603U, 0xbcb3b5d5bcad8c1cU,
  0x3d0c35923cc8693cU, 0xbd843f16bbb78c85U, 0x3bab91633d468e61U, 0xbdfa84b83a26b46cU,
  0xbc7717e5bc93a53dU, 0x3d1c7c78bcaa6708U, 0xbc03b7443d20e132U, 0x3c3913503c97597bU,
  0x3bcdb00bbbd4727bU, 0x3bfa322f3bedb0ddU, 0x3c84d7163c9f9a44U, 0xb9cf1880bd0242a3U,
  0x3d808b7f3c677f3eU, 0x3cb9d8df3a57bb09U, 0xbceb52e0bc7f4a40U, 0xbc0dc965be46d468U,
  0xbc518f31bc47c32eU, 0xbd4a658338240eb3U, 0xba3fd9ab36d01cc5U, 0xbc9b4cbbbb5ad45dU,
  0x3c77e3853c5dea6fU, 0x3d0d476cbcb18245U, 0xbb12f04c3d852961U, 0xbca0d9f7bc07f1daU,
  0x3cca016b3d56e1ffU, 0xbc8a56aa3c0716d5U, 0xbcf58f30bd5fd35fU, 0xbc817f853ba5b1a9U,
  0x3ab294023cd47329U, 0x3c7b89d3bc397716U, 0xbc5a7b3a3d1cff59U, 0x3d01a6943c613f7dU,
  0xbca5c885bd5db3e5U, 0xbccffcf9bde502ddU, 0x3b88f493ba8b0199U, 0x3d04f30ebc48b279U,
  0xbca2acc6bdad91a2U, 0xbc0c0045bbc7adbdU, 0xbc25093b39b44ca5U, 0xbbc5d893bc9a36a8U,
  0xbc459d62bc7ae1fdU, 0x3d8689d7b89980f5U, 0x3cc3ff2dbc777393U, 0xbd964defbd39b146U,
  0x3d115c32bdcba930U, 0xbded845a3c267ce8U, 0xbc7db5bebcbda99fU, 0x39f710d13d2874c5U,
  0xbcc49ef5bda3980cU, 0xbc1e4cd5bcb520cfU, 0xbb137d7c3c124c22U, 0xbc77928abe100ebeU,
  0xbca6d122bcc0259eU, 0x3bffef1cbc9ecaafU, 0xbbf43f6bbd761f0eU, 0xbcdeaa1c3b878561U,
  0x3c982ff6bd0a56c4U, 0xbdb67d1cbd68dd76U, 0x3c2231b53be91283U, 0x3caabfeb3ba01747U,
  0xbbb5fa323cbc088bU, 0x3be7aea73bab400fU, 0xbd02664bbc92d45bU, 0x3ca02f32bbaee373U,
  0xbcba57cd3dc5830bU, 0xbca4ae2e3c186dfcU, 0xbd345ffcbd4e1f24U, 0xbdd91a823c678821U,
  0xbcde39883b103454U, 0xbc1ad9b13c94b025U, 0xbd1021a5bb83189fU, 0xbbcab4bfbb9d02f5U,
  0xbc20320b3cbfd719U, 0xbca0b1ff3cda2b74U, 0xbd8b5aabbcaa39f3U, 0x3d50797fbce59b78U,
  0x3d355a5c3b0760feU, 0xbc8b23c0bcb6ef5eU, 0xbc21cf3c3d9e5191U, 0x39d01319bb8f89e8U,
  0xbc12180abc2b256fU, 0xbb70b596bcfd478bU, 0xbb224108baa5621aU, 0xbb8986abbd21618bU,
  0x3caa9462bcedd63fU, 0x3e05e5d4bc9860c0U, 0xbccfc48abde81580U, 0x3bf3da2bbd48c01eU,
  0xbe2f4a773c60d0c7U, 0xbd61226f3d9fcdaeU, 0x3bf4d44e3d8ed168U, 0x3c331a98bcda482bU,
  0x3b766e293c07dd7fU, 0x3a9086033d8b909cU, 0xbc965f2a3c9fa1afU, 0x3cbebabf3d286bf0U,
  0x3d094b97bc64171cU, 0xbbbfae37bb61fc66U, 0x3d2153133b17dc4aU, 0xbc2e46ea3dec1e30U,
  0xbc51dff5bb487a32U, 0x3d62a5f63b8f8607U, 0xbbe7f1253ca8404fU, 0x3c2a201a3c2ac7bdU,
  0xbcfdb8e4bcd409e5U, 0x3c4079103c5b2a33U, 0x3d618a61bd0a09eeU, 0x3d22c408bc916fb7U,
  0x3d857d6e3c8ab5dcU, 0xbb7e529bbbe8c4f8U, 0xbbd33328bd15e84fU, 0xbc5818b2bd3313eaU,
  0xbc9fd4bebc5f8f7aU, 0xba098fd5bae2ed48U, 0xbb619f5bbaf6f721U, 0xbc46406cbc2e3f46U,
  0xbc0b4c573c462b54U, 0xbcb05198bd89e361U, 0xbd10f7d43adf1e94U, 0x3accad953b6e4c25U,
  0xbbd6001c3dfd5c6cU, 0x3c30d4b1bc03e8beU, 0x3cb80c66bc51cabaU, 0xbc3931e3bc402b08U,
  0x38ac455abc206532U, 0x3d930e893d031db4U, 0x3c8c7e5d3be6e089U, 0x3bca38adbd315ca5U,
  0xbc18bb243cd2cf98U, 0xbba03ada3c8a155dU, 0x3c7721b0bcc4306fU, 0x3d2bf304bbdecd1aU,
  0xbc23eecc3c179ddfU, 0x3c5d5ea93c0f9bfbU, 0x3b795345bb9f9456U, 0x3b79b5e0bd2aad35U,
  0xbbaf164e3af851a2U, 0xbb4d37c2bc438fbcU, 0xbceccca83b5992e8U, 0x3c5ce11ebaba6b43U,
  0xbc5b5b2839d92f9cU, 0x3d5ef51ebd22a0a9U, 0xb8b9e787bbb89250U, 0x3c895f783b84e804U,
  0x3be9dddb3b7b4b25U, 0x3c5ebd1bbc30c29bU, 0xbcc3111dbcffde4aU, 0xbc487b003ceee601U,
  0xba0bb3e6bd31b593U, 0xbc48254a3a19ce48U, 0xbd63f217bc8df6aeU, 0xbd1c89163c916bb4U,
  0x3c676ab73b43b478U, 0xbbe660cd3ca7804fU, 0xbb504c613c915006U, 0x3abb7776bbf32847U,
  0x3c4858793d6938ccU, 0xba13a1e4bb834ad4U, 0xbc80bafdbc250486U, 0x3d03f99f3db49735U,
  0xbc494a7b3b0e7221U, 0xbd07daa5bb603c7fU, 0xbac8e2433cdb58e6U, 0xbbe5f178bb9a17d8U,
  0xbc0e77843b76e3d0U, 0xbc0c3e1b3bba7999U, 0xbc155bca3a0203dcU, 0xbd6f27043d5f173dU,
  0xbc9bb9acbcfcab24U, 0x3da05d4dbbc4bd7fU, 0x3c8c19d4bb6b09acU, 0xbcff16f23bc9c6ddU,
  0x3d4bfcdd3ce53ea9U, 0xbbf8dcf63d8f06c5U, 0xbae9d7c33c80a8c6U, 0x3cce462cbc88aca5U,
  0xbbe8d2a7bba8ac41U, 0x3bfe7a22bd201f59U, 0xbcf5829b3ca204b9U, 0x3c7cb860bc49a3b4U,
  0xbac66da53d0d3decU, 0x3cb76156bb661acbU, 0xbcb57095bc55452fU, 0x3bdc22a73d8c54f2U,
  0x3c733f0abc171ac8U, 0x3da9396f3a8e8357U, 0x3bac4a603c067c12U, 0xbb824985bc706487U,
  0x3d8755cc3b6a7052U, 0x3bce4d7dbd00e04aU, 0xbd01544fbd34e614U, 0x3d2733253d232aa2U,
  0x3cc8c6983d3830b7U, 0x3c9abed03d1e8cd9U, 0xbc8689293d50e1baU, 0x3b4362703c57948cU,
  0x3b0dc5db3bdf3bd7U, 0x3b87740b3b48bd1dU, 0x3c8ea148bd14372aU, 0x3c58e260bd4b4809U,
  0xbb9671c43c028acdU, 0xbcecc6533bc2675bU, 0x3cb1686e3b06c1b7U, 0x3d1cdaae3c96ab42U,
  0xbd4a98c0bbb55368U, 0x3c3537733be54cbaU, 0x3a6487863c34ae5aU, 0x3ae56ed83cae2506U,
  0xbc4549383ca3e4e7U, 0xbd1ab3b43c7d0babU, 0xbd4f44ba3c162708U, 0x3c8c85dd3d31f2a9U,
  0xbbeb4138bc902fe5U, 0x3cce64683ca5d915U, 0x3d9a190cbc911411U, 0x3cc2a2b33d0618c3U,
  0x3cb0d54b3bd8844fU, 0xbbf65f803ca17665U, 0x3ba617cabbc93b1fU, 0xba5569413cf48d92U,
  0x3d30a12a3c5e6335U, 0xbc84c17f3d34de29U, 0x3d180e20bd3ad57fU, 0x3d2efcc9bb3a228dU,
  0xbcb0771dbb1ac2e7U, 0x3ccb6f70bd27bf30U, 0x3bed01513bbfe046U, 0xbba878f33a60cae8U,
  0x3afe4d24bca978a3U, 0x3ba99714bd00b35bU, 0x3d50f3b2bd10bdcdU, 0xbc638c15bb7c829dU,
  0x3d1a3f48bd33d523U, 0x3c4621e1bc81203aU, 0x3e39d8cdbc25cbdeU, 0xbd288a463cb3cbe0U,
  0xbb89c3c73ced8231U, 0xbcabf840bb8080dbU, 0x3bc4e3083b51f7c1U, 0xbc4a53b8bb729989U,
  0xbb85209a3c8bc66aU, 0x3c17e2723beaf44bU, 0xbcbcbd3c3d071f55U, 0x3cf2f27cbd4a5e53U,
  0x3cdd86d0bb70a4aaU, 0xbb152823bc945d2bU, 0xb99ca57a3ba7fe1bU, 0x3b1031603c747345U,
  0x3c53ef813bd1ea57U, 0xbc3865eb3cca8f9cU, 0xb94d3c7eba980aa4U, 0xbd10ae0d3cde6ac9U,
  0xba8b1d2d3d2776f4U, 0x396505bbbd450c5aU, 0x3cacc00d3b808ba6U, 0xbc666338bc84dd37U,
  0xbc06b1573b2febc1U, 0x3cd381763c752b33U, 0x3cc1055ebc2dd6d8U, 0xbc953b993bfc93dfU,
  0x3b9aae933b7e3930U, 0x3c298d363cec8ec7U, 0xbcebef413c4c5db1U, 0xbb3d8c073daa16cdU,
  0xbc18f4593c9681daU, 0xbcd688bbbb8258e8U, 0xbc1645313c9a59c4U, 0x3d607bb83d4220faU,
  0x3b1e69bebba00a43U, 0x3d215ebdbbb679b2U, 0x3bb8a1f8bca21b69U, 0xbc8706143b083e8eU,
  0x3c20816a3c6af2d7U, 0x3c24946ebceba39aU, 0xbc74c753bd4997ceU, 0x3a27fa6a3cc0b072U,
  0x3e2ebe453cdb4f39U, 0x3c9cb9863c02c593U, 0xbc555d793cf47f98U, 0xbc9a5b52bc5c8aa9U,
  0x3bbeaf9d3c95a0feU, 0x3b305de93c34b2ecU, 0x3a9330633d267431U, 0xbc7e1838bc9ed1e1U,
  0x3d238e6c3d103b83U, 0xba84fca5bd0b59e0U, 0x3b8fecb33a787da6U, 0xbc7dec5cbc46bdfcU,
  0x3d7d1f0cbe0335adU, 0xbb432d47399bfb12U, 0x3c47daf93ba8a02fU, 0x3b27d2683bdec161U,
  0x3c6f92e4bae35e32U, 0xbd0c30b63c078e92U, 0xbcd59ae5bc89f89cU, 0xbb9e33c7bd8e523aU,
  0xbd2d0320bc57ac6eU, 0x3dd2b83ebcf848cbU, 0x3d634b6fbbe86f14U, 0xbd749cb1bd4ee91fU,
  0xbc3baf67bc353e1aU, 0x3cf09cfcbb0c4dc2U, 0x3c8a6a5e3b9dd2baU, 0xbb0472c53d3d7cd1U,
  0x3c72d0c43cabf194U, 0x3d0d5a693b757627U, 0x3d5165ddbc98ceaaU, 0x3c8542a93b6f4b84U,
  0xbb77f57e3c231f14U, 0xbc93e06f3c82822aU, 0x3b689f29babcd5d4U, 0xbabc5ac2bbd18c55U,
  0xbb72a3e5bc5298edU, 0xbb089e5e3ca567e5U, 0x3ced82bf3caf19b9U, 0xbc1afb95bd3df2c1U,
  0xbc96d874bd5629c0U, 0xbd0172a7bcc220d6U, 0x3a70c4b93b540558U, 0x3ddf639ebbf171d0U,
  0xbd2d73a7bd83fc32U, 0xb988751bbc63649dU, 0x3c80b0c8bc932594U, 0xbbe938b23bb1d0a6U,
  0x3aa178aebcdb909bU, 0xbcb8b6073c4cc10dU, 0x3bfce6d8bd309a79U, 0x3cac3585bcb8f55cU,
  0x3c513ce63a534d77U, 0xbcd71d213ae4a1b0U, 0x3d46c84dbd83cfa7U, 0x3a1f09f8bb41a662U,
  0xbb8928cbbc152124U, 0xba9c33dcbcd10a7aU, 0xbba1ec59bbb1844dU, 0x3d3e51b43bf04c01U,
  0xbc9c9d653c2dd2d6U, 0xbc3e3d28bcb8e641U, 0xbc7c0073bad53d41U, 0xbd9928c03b69da24U,
  0xbdfa7a373c25e443U, 0xbc70a62ebc7bd69dU, 0x3903e01a3cafc67eU, 0x3cfd88bf3925d345U,
  0x3a5b2cedbb1f34edU, 0xba2a8b613d6d76e7U, 0xbcb27110bc84eeccU, 0xbcab8ddabd5c0b05U,
  0x3bf287fc3c905bbeU, 0x3c257cd03a39b905U, 0xbb37bd3cbc3a686fU, 0xbd0eea22bd23af29U,
  0xbc329bbebbd1a0a5U, 0xbd116940bbd69cffU, 0xbbc917babbee006aU, 0xbbdbff14bc37fc07U,
  0xbd27aa71bbcd2b79U, 0xbcbadc09bd038f01U, 0x3d261c813c865923U, 0xbc58cb3d3cf9fcb7U,
  0xbd375efe3b63cf01U, 0xbcfc1b43bcb62cbfU, 0x3ce58a36bb5755b8U, 0xbbb2a0243c9d3766U,
  0x3cb0c471bcac04bfU, 0xbc439b78bc5b1da2U, 0xbb800be93d2211c1U, 0xbbf081573c2a2a55U,
  0xbc6bfd9c3ac9f006U, 0xbb49d4443ade9a26U, 0xbcd4e7dfbb078233U, 0xbccf2ef2bc83f8b9U,
  0xbd1a2eb33d0059dcU, 0xbc23cbbebb9260b3U, 0x3da019b83aeb64d9U, 0x3b8fc1e1bcd3aed9U,
  0xbc8b61d7bc5c8f51U, 0xbd754982bcdcbe46U, 0x3cd5023cbd0ed1faU, 0xbc72001a3c44b1e2U,
  0xbc7de189bab53424U, 0xbdc38148bcf52201U, 0xbdb8f16fbc18e1aeU, 0xbc7f086a3cf2d227U,
  0xbc315cbebc84985aU, 0xbb10dc373bf336c9U, 0x3acc9a54b98fdd96U, 0x3b995338bd8eb947U,
  0xbce78fba3c808e5cU, 0x3c190534bbdb961aU, 0x3d143b3d3bd762d7U, 0xbc4f2a073ad0a8ccU,
  0xbaf51d2fbbcb33c7U, 0xbc123c9dbdc13689U, 0x3aad6b58bbd3562bU, 0x3cb17b90bc563e7aU,
  0xbb53608f39d71f43U, 0xbb7d3795bc55cbe6U, 0xbd297517bcd59790U, 0xbc6ab8ba3a846b7fU,
  0xbc9fd9a3bc667c8dU, 0xbd007d01bbb69b67U, 0xbd09fb34bca0a5d2U, 0xbd743a31bafa576aU,
  0x3b3928b0bc70e7d2U, 0xbc507ce0bd2604cbU, 0xbbd8df7abc25a939U, 0x3baa696cbc89029cU,
  0x39b507babd3c2d46U, 0xbba874143d28b438U, 0xbd0fa621bcad75f4U, 0xbc9c74b93d0453fbU,
  0x3bda5420b9c0614cU, 0x3d1d797abbc95c68U, 0x3bd97474bd62af44U, 0x3b52c2fdba8faa8eU,
  0x3d1b8461b7845453U, 0x3acb7049bc890470U, 0xbaf684dabbd67612U, 0x3cc006253d8fd0c7U,
  0xbc86e6453b3c79bdU, 0x3d85aee7bd432562U, 0xbd270ed93d431ba1U, 0xbc5e7f93bc436219U,
  0x3ddad778bccdadd3U, 0xbc7cb9e53daa9658U, 0xbca4fa55ba596277U, 0x3d41e04b3bc20382U,
  0xbbcb54eabc864b28U, 0x3bfa4f4b3c8a09b4U, 0xbc68b7863d2e8bfcU, 0xbd9117883caf24acU,
  0xbc4f73303daff676U, 0x3b6240a2bb797558U, 0x3c61e1e7bcbc9ec4U, 0x3ba00b3abda5062cU,
  0x3c56cd4cbab4d2c1U, 0xbce2f47ebb5054edU, 0xbc98f415bcb5d992U, 0x3c2727a0b87ba08aU,
  0xbaa24119bb99f62cU, 0x3a39ebcabc03d18dU, 0xbd37f2383cd3e779U, 0xbd0a5bcfbce82c2fU,
  0xbd1f82273c88b63aU, 0xbcd3d9673c0a306aU, 0xbc43346b3daaba25U, 0xbb0a81f8bc982062U,
  0x3c9187d4bca47f02U, 0xbb0e2297b91168c9U, 0x3c02fc2a3bc68afdU, 0xbc65d4103d8f56d9U,
  0xbd0acdf33c11b938U, 0xbacc293b3b8bf275U, 0x3c2b40933bd16a75U, 0x3d0b7a3cbc8a88b3U,
  0x3d1d8ce73bded3b3U, 0xbc545e763a900038U, 0xbd2ff0be3c52f797U, 0x3b8b2cc8bd745a6cU,
  0x3c9dc7043afb8015U, 0xbcb44edbbbd0b69aU, 0x3d3f43f43c908a76U, 0xbd203d21bc245333U,
  0x3a473437bc99118bU, 0x3ca560a83bb5df13U, 0xbdcf1d5abc59870cU, 0xbbc4183e3e34ed0dU,
  0xbb7b3b13bd14d527U, 0xbb7a6bcb3cb62b4aU, 0x3b603e5ebadd149aU, 0x3b3f3be4bd3713cdU,
  0xbb8007d0bd0971dbU, 0xbc69a9af3d9dad13U, 0xbd2550c4bcb742b4U, 0xbb09f368bb0911b7U,
  0xbbd91afc3ac3d6ebU, 0xbc0397abbc0c9d1cU, 0xbacad86ebc25ca7bU, 0xbc63cdcabb5d757bU,
  0xbbd041543c5e3110U, 0xbbe1b1623b0d56deU, 0x3cacf9293d856cddU, 0x3c57ba0d3cb8078eU,
  0x3d6d7e693ca16636U, 0xbd6fc0f7bc41fb3eU, 0x3dfe56ccbadb9f12U, 0x3cdc5a7dbd3c7c66U,
  0xbcd7d159bd005228U, 0xbc36b79e3c1bef04U, 0x3d340a473cb08a76U, 0x3c3e7e9c3b9f1188U,
  0x3c8d1be33d9a727cU, 0x3d1b3fc8bcdef2c6U, 0x3d3f323f3e48f7d9U, 0x3d5969e33b62e445U,
  0xbd81dea63ace9f0eU, 0xbca186dd3c94f256U, 0x3c85ab00bd0d89a7U, 0x3a9ddb50bb97fd0eU,
  0xbb86a5b6bb9ac08aU, 0x3c26a6b9bd17f8c1U, 0xbc91debd3d6912eaU, 0x3c657a74bd439ff3U,
  0xbd094dcabc69908aU, 0xbc9f794bbd7477e3U, 0x3d921358bd975c2dU, 0x3db0ed163cf51246U,
  0xbccc15dcbcb2809aU, 0x3d11a7023d451243U, 0xbcc1e8d1bd4c950fU, 0xbc6b04443cdc5c01U,
  0x3abe0ff23c99d1b4U, 0x3cce1219bd1a6c51U, 0x3d98dfbe3d087f76U, 0x3da99d513dc7b8bdU,
  0x3c84bd7bbd9f0eddU, 0x3c97e7cf3b0f8924U, 0xbca5fb7abd17302cU, 0xbdc120193e002649U,
  0xbc928205bc4c09e8U, 0x3d79b0ffbbf4b084U, 0x3b07e3743c981b69U, 0x3bfa1627bc04398bU,
  0xbd2f331fbaa217feU, 0x3d68cbfbbbf7b955U, 0xbbd27fd0bcc8c74dU, 0x3ca8896a3c215545U,
  0x3d72e814bc7048c1U, 0xbdeab7cebc98a166U, 0xbd83b6f83e0c7498U, 0x3b216998bcff0b1eU,
  0xbc8697aabb89c6dfU, 0x3bd649de3a7047b1U, 0x3b0e0a80bcb7126bU, 0xbb8eed8ebc8a0a06U,
  0x3ce04cdb3e505b93U, 0xbdba4edebd0f1445U, 0xbd5f0c173b904e34U, 0x3be8063bbcc50ec4U,
  0x3ab90aff3ce1ba17U, 0xbc8c3ed8bb7dfef7U, 0xbd464686bc0e06bdU, 0x3b7ec3f03d5eb145U,
  0xbd05077e3cd547b3U, 0x3c071797bc1091e5U, 0x3d90f2b63c5033a8U, 0x3d1cc50f3cfcf58fU,
  0xbd36de71bd96f429U, 0x3d544b6c3d2c23e9U, 0x3bfd6854bc957b95U, 0x3cb9c3463b262054U,
  0xbc07ef2dbd75c1a1U, 0x3c5140f4bd0272adU, 0x3c90a21b3c130ce2U, 0xbcb631fc3dc51e13U,
  0x3c643655bd0dbdecU, 0xbc7130bf3d072120U, 0xbd6dccdabbbeb848U, 0xbcdd1f14ba232113U,
  0xbd108fb43be79750U, 0x3ca8f453be1ae91fU, 0x39d0b3723d0376d4U, 0xbb4696c5baab08b1U,
  0x3bd9cdd6bd85512dU, 0xbb87da2db9afe897U, 0xbd4c40c53c858351U, 0x3cc6dcc13bbbfa31U,
  0xbafa28493b6956adU, 0x3d3ad4223c5f6d95U, 0x3c3eac35bc59d363U, 0xbdd27ed83c9cc2adU,
  0x3bebff0a3c4de310U, 0xbc104475bd17690eU, 0x39fcb11ebd8213caU, 0x3ba6c4af3c7d227cU,
  0xbc5bc39bbc6c1b39U, 0x3cdc8b033b2badc0U, 0x3c0d3e76bc19ade8U, 0xbbb995283d31c86aU,
  0x3ab833f7b9d7f71bU, 0x3c7faa54bcd087fbU, 0x3d850d77bda45da1U, 0x3cba19ea3c99f843U,
  0xbc8a745d3c50130fU, 0xbb9c83d43cda4dcfU, 0x3cb2a0173ca0f3d3U, 0x3d1cfb50bd53b245U,
  0x3d69cf2f3c741466U, 0xbc0299dcbd77da97U, 0x3bfddb5dbd646b37U, 0x3d7300ed3d06e567U,
  0x3d6c4a8dbd298f40U, 0xbb669c063c0207e3U, 0x3c858b02be14cc98U, 0xbc167f5538def791U,
  0x3c8366d3ba799c87U, 0x3c11c923bdbcad9fU, 0xbc537e79bafc4c81U, 0xbc32f0383c86803eU,
  0xbd1b2f0a3c80e382U, 0x3c025c333b26982dU, 0x3cd6762d3c98f032U, 0x3e081606bd895936U,
  0x3d0a2067395e0d8bU, 0x3c84b7163b2cdd80U, 0x3d050b8e3c8009deU, 0xbd02112e3d23a7e9U,
  0x3c3a32a43c6abce9U, 0xbbe09e17bcb27dcfU, 0x3d005e2abd9df958U, 0xbd9b482bbd9a3164U,
  0xbcd3b4633cc16ba6U, 0x3e25deabbc1be1bcU, 0x3c840450bab26600U, 0x3cdaabbbbd0ec319U,
  0x3c9f574e3d3963e6U, 0xbbacce5a381590deU, 0x3b72155a3d4951d4U, 0x3c6024283d2583acU,
  0xbb3deff5bdbf0aacU, 0x3ca45bb73b0b20feU, 0x3c2e790fba9a4176U, 0xbc9fea6b3b5c22d3U,
  0xbca480b7bd714697U, 0xbc2342f4bc8a44a7U, 0x3d13fb25bbbbf05aU, 0xbd10beccbb91ec4cU,
  0xbc565999bbcf1280U, 0x3cf06644bd2a951bU, 0x3d19d7d63c3e9e69U, 0x3d0fc2a1bcffadf8U,
  0x3c3ab6e2bd863997U, 0xbd313f0c3d32b5b0U, 0xbbbbbb26ba758de6U, 0x3d8ec4d1bdae52d7U,
  0xbc1c83e2bd102ca3U, 0x3b9cc3913ce966c4U, 0xbcbc1470bb2ea04fU, 0x3c33793ebb9b7e13U,
  0xbcd1f15f3d539ab0U, 0x3cd967a6bd91b58cU, 0x3d03f038bbf41276U, 0xbd4c87023bd662c1U,
  0xbd63cdd4bd2d3771U, 0xbda886283d37ba58U, 0xbc943da4bb1f42fbU, 0x3d19c0b3bccd7351U,
  0xbd4b73bfbbfaf938U, 0x3cd2a514bccbce09U, 0xbd0517c0bdc33a5eU, 0xba83cbd03c50eebbU,
  0xbd12b5673d605b49U, 0x3b99ef0d3c5e5460U, 0xbdce62233c9204fbU, 0x3ded45f03d07decfU,
  0xbce2baedbd29167bU, 0x3c2650a0bc5c4695U, 0x3cce56c23b929832U, 0xba04b6623bd112beU,
  0x3bbd7f4bbc13ef58U, 0xbd2579ec3d416098U, 0xbcdb40a3bd690f68U, 0xbd629327bc60ed19U,
  0x3d00c85239af3988U, 0x3dc3241a3c6b56d4U, 0xbc5b5bba3d83ebd5U, 0xbb568fb33c741aecU,
  0x3d0c1fa1bb8b3a92U, 0xbd490292bce2d6c5U, 0xbc1124bd3b388b48U, 0xbd783b6dbcbfa88eU,
  0xb9181264bcdb2d00U, 0xbd328db4bc0d7fcdU, 0xbbffac9dbcaa2abcU, 0xbc88b88d3caf406bU,
  0xbce4b2adbcaf3c24U, 0x381be3693c6f9f5dU, 0xbbd905783cb8beefU, 0xbc24d9b8bc6567d2U,
  0x3a4d949fbb3c4423U, 0xb931454abc294585U, 0x3d3714263c5e23b1U, 0xbd82dafe3c07a506U,
  0xbb358230bd03217cU, 0x3ce97d01ba5fe173U, 0x3d846f953c569c92U, 0xb9d1c84fbd296e22U,
  0xbbb84d653b150220U, 0xbd3264d33b028339U, 0xbc522467bd479067U, 0xbae5b9433b28d3f1U,
  0xbd1cad9a3d7b4113U, 0x3c681e46bd364979U, 0x3cc59a63bd1b5e6cU, 0xbcf792f4bc5a9d92U,
  0xbced49f73bdb14eeU, 0x3dedd9e0bd723535U, 0xbd8097963be5c355U, 0xbbbb4ebebdabdfa8U,
  0x3c8e6e65bb0ba77dU, 0x3be32747bbf2c7a7U, 0xbb30d7f7bdedbe52U, 0x3bf34a6fbc068af1U,
  0xbd18502fbc9c4fedU, 0xbb503acb3d88f2acU, 0xbd393573bb4c760cU, 0xbd32de9cbc671d42U,
  0x3d56b1debdd52e9cU, 0x3cb2315c3b994a9bU, 0xbc4a72133be374edU, 0x3c5aa649bb810045U,
  0xbbb4ce5b3a6f01e8U, 0x3d0a676b3bb8583cU, 0xbc9519fabd200880U, 0xbd24b445be2d47aeU,
  0x3dcf90c5bd961973U, 0x3d7200fcbaae66b4U, 0x3db5b7423d878c84U, 0xbd365dde3e05daefU,
  0x3c19fc9bbcd58904U, 0x3ca76679bc002577U, 0x3b1cc03a3c9256b4U, 0xbbc1bbf9bd9b77eeU,
  0xbc989d88bc26019bU, 0x3d17411a3c2cbf15U, 0xbd22888a3c1713d3U, 0xbd0d12a33b1582b4U,
  0x3c2ac4a93c8c7070U, 0xbd46e0e63b7ee801U, 0xbcadd1953c9feaf5U, 0xbd18070c3ba3050cU,
  0xbc328cb33d5f60d3U, 0xbb4887323c75dc81U, 0x3a8a54bf3c6bafeeU, 0x3d337230ba917030U,
  0x3d271ff9bd0bd321U, 0x3dd7d061bcaacb7cU, 0x3cf4515b3ca4c6edU, 0x3db9397c3c462eb4U,
  0x3c5f030b3d41065dU, 0x3bac3f683a21c7a1U, 0xbcaeabd7bb86e12fU, 0x3cb8ccb5ba640897U,
  0x3ba79279bc26dc73U, 0x3c1580913c6c47b3U, 0x3c452aa03d702214U, 0xbdacbe183d40161dU,
  0xbcb9c2ccba0328feU, 0x3a1e93dc3c5550e4U, 0x3d792c5e3d8c320cU, 0xbb0bd17c3bdb5d66U,
  0x3b108aab3b866b77U, 0x3b391dd2bc821789U, 0xbb895e033c92835aU, 0xbd6252b5bcedd4d7U,
  0x3c184d56bc9119f0U, 0xbd010b5e3c5a9231U, 0x3cc224813d6e4dd4U, 0xbd0e44aabcc38799U,
  0xbd2dcbcc3caa71c3U, 0x3bf6c516bc83b390U, 0xbbf9eb9ebd595685U, 0x3c416560bc6ef1eeU,
  0x3c67a6ff3b901214U, 0x3b828040bdadf7f4U, 0x3d0657c3bb1ef140U, 0xbd6b1f73bd80e97cU,
  0x3d612deebe033e24U, 0x3d35593abac383b9U, 0x3cd35902bc038684U, 0x3cc882dfbd21bb3aU,
  0xbc71c6c63c7832cfU, 0x3c8a5a8a3c4d957aU, 0x3c92546d3c6abe9fU, 0x3aecfe3cbc42e8f3U,
  0x3d82aaec3dcf3c5eU, 0xbbc5e75eba142ca3U, 0x3ceb8b33bdd8ee18U, 0xbc08ab5f3c82c147U,
  0x3d5369d6bd0d03f7U, 0x3d3bd164bce06c14U, 0xbcc9a726bd7d0009U, 0x3c8f68bebd85e7c9U,
  0xbb929d243c9f9992U, 0x3ac4e09c3ac32572U, 0x3b4530dcbd822db8U, 0xbcac8ac63c767a78U,
  0xbd4b854c3c1c2c09U, 0xbd1aa8f33e15bb8cU, 0xbd752a36bb249bc9U, 0xbd244add3aa619bbU,
  0x3d89a5dbbd21df38U, 0x3c922d043c527583U, 0xbd0faac4bb84b9e0U, 0xbac564fe3c3852deU,
  0xbc0b96ecbc9b9df9U, 0xbd187e323c9b7e99U, 0x3d1b5592bd32bed0U, 0x3c557514bc9afb0aU,
  0x3b398ecebd8276d0U, 0x3af0a34f3b206dd4U, 0xbdebcbadbd1d73b2U, 0xbd20d6c13b8c4ad7U,
  0x3c7902093c822db2U, 0x3d61d1f43c880335U, 0x3a0d8936bbb73fa7U, 0x3b2a8c06bbd36da0U,
  0xbc9a29fdbcb47af7U, 0xbcbfa182bc5169d7U, 0x3ae6db733dbf796dU, 0xbb9a4c323b5a22e2U,
  0x3b6d12f23bf28d37U, 0x3c6e9dd7bd97b78dU, 0x37801312bbd4fec6U, 0x3be68cb4bc8096d8U,
  0xbc75442cbc91fec1U, 0xbbfa2e7fbc1a2ab6U, 0x3d2db3f4bd1c9388U, 0xbd4d7be0bb816d58U,
  0xbd90be74bcedbf21U, 0xbc85f46f3cc43cf1U, 0xbdc3aa2d3c87f9f1U, 0xbdcf25fb3d5eb552U,
  0x3d121169bd59a1e0U, 0x3c05804a3d959a14U, 0x3c1ac9333bbae6d6U, 0xbc219f003c62fa67U,
  0xbba73d043df75df6U, 0xbc38717abb6fbfceU, 0xbbe16a6dbd8d4e1fU, 0x3d8f161ebdb9d884U,
  0x3d80aaa4babb4671U, 0x3c9653323cb4fe6cU, 0xbd971399bce89a77U, 0xbc0acf2fba9d15d5U,
  0xbd625de6bbef0a3fU, 0xbc86d786bc7784cbU, 0xba0c6da8bc15608aU, 0x3cdc5176bcc399f8U,
  0x3cbe25aabb00b54aU, 0xbd53baf7bd28da12U, 0xbce6bd013cb8f922U, 0x3b05cf59bca37787U,
  0xbdf2675abca24625U, 0xbd6d1eca3d0ddab0U, 0x3c3fe90abd2b2ba1U, 0xbcd663093b604b7aU,
  0x3cf913a5bbb02629U, 0xbaac2019be02c74eU, 0x3d79c264bd50c2bbU, 0xbcdbc668bce2dfb9U,
  0xbd326c12bda4be1aU, 0xbac190883b7da3a4U, 0x3c862f133b69dd5eU, 0xbdbd748ebd26fb8cU,
  0x3c342e6f3c188c91U, 0xb985544e3b81e2baU, 0xbc10ee4fbc8b5e93U, 0x3cd5acefbb85a01cU,
  0x3e00955f3c766691U, 0x3e00fb5dbc1f3d2dU, 0x3d1690293ca2399aU, 0x3b99a1c33d447198U,
  0xbc64e034bb856da9U, 0x3c34c57d3b1cb186U, 0xbc8fc40fbd1ca763U, 0xbbcf407f3c33cf46U,
  0xbc1ce3e8bc6fffa9U, 0xb93e8917bc0e2673U, 0xbc0f19ff3c7e9346U, 0x3ce91fb8bcf6d08bU,
  0xbb922edf3c37a972U, 0xbd095a97bd1d9032U, 0x3adfa9233af998c2U, 0xbce128cfbc38c98eU,
  0x3dc0a978bd2943a1U, 0xbb5bed4b3b0df429U, 0x3d456589bb5f3a96U, 0xbc4a3371bb9fa5e7U,
  0x3a8b8542bb088be2U, 0xbd97a08cbc57892fU, 0x3c80c57ebce73b88U, 0x3cfc0c0abb4ba80fU,
  0xbcead5803d23b38dU, 0x3d148caabd4e0b5aU, 0xbc8d4986bc8db754U, 0xbd2856a53b2cb799U,
  0xbc7bd7d03d46114cU, 0x3b66c2aebce9967fU, 0xbaa9a963bbcc76c0U, 0xbc328c473d382445U,
  0xbd48b2b63ce964a6U, 0xbc459b9dbbaec0ddU, 0xbca58492bcfeac3cU, 0xbc83c94d3ab83f60U,
  0x3c871c8fbcb143ceU, 0x3d584f0abc90728dU, 0x3b826868bbcfacdcU, 0x3a25c895bbd7de03U,
  0xbc46884e3b0851b1U, 0xbbcccd793ca9d78cU, 0x3d0ad997397a7e14U, 0x3d84ac04bc7b442fU,
  0x3cd83943bcb70064U, 0xba1d64303c2cfc0fU, 0x3ca1a5733bae9ff0U, 0xbde2a7083c8e221cU,
  0xbbf275fc3d4de1a5U, 0xbc0ac5b2bcbf83f8U, 0xbc1bfd753cdf9569U, 0xbc4bf76a3c103305U,
  0x3cc78437bd783a6dU, 0xbbf14485bc9afacdU, 0x3cc237943c9f8e1cU, 0x3cbef0c93d45947eU,
  0x3be26adab99b4339U, 0x3d3f6e7bbc740d10U, 0x3d05c459bda2bcfdU, 0x3b875fcd3ae6d5e8U,
  0x3d3ceb3f3a0c83c1U, 0xbc391b5d3d4c4ef3U, 0xba0c643fb804fca6U, 0xbd9321d03cd8f999U,
  0xbbdf8b2fbc0541b9U, 0x3cbe359abdd43becU, 0xbd033391bc9c952dU, 0xbc016e6f3be16af5U,
  0xbc09630cbba70cfbU, 0xbd1b2d19b9ab6ed9U, 0xba4b3de3bd6039b2U, 0xbb68c4caba80377cU,
  0xbae4be65bc877289U, 0xbb02f361bcc85d1fU, 0xbcab02f43d827c9bU, 0xb9d0f06f3d0aac11U,
  0x3c9c135e3d666a8bU, 0x3a92d587bad4a5d0U, 0x3c8961903c36278dU, 0xbb326edebd207a36U,
  0xbbe8c534bb0770adU, 0xbcbc91f2bb9fe628U, 0xbc845c4e3c1cc89eU, 0x3bfe9d4b3bff16a2U,
  0x3bd47883bcab201fU, 0x3d0e3925bc9fe4a6U, 0x3ce03ece39dcfac7U, 0x3c4f582f3cca177cU,
  0xbb03baa33cbacfdbU, 0x3d18cad8ba77043dU, 0x3aa3b167bdaa9defU, 0xbc996cd03d40b83bU,
  0x3d0c9cff3c58e5e0U, 0x3bac8db2bbeeadcdU, 0xbb76cfb73c9b1d3aU, 0xbc87abe3bc412096U,
  0xbccdebb13c97a7c4U, 0x3ca88fb3bcfa0f6aU, 0x3c1e909cba20f899U, 0x3bdf1eebbc7e6d7fU,
  0xbae59172bd04817aU, 0xbb2d0073bc3402f9U, 0xbae0413fbc48e763U, 0xbc8592aabc92e589U,
  0x399ec3babc9b751aU, 0x3d842e4abc939db7U, 0xbc0238bbbb6ef489U, 0xbc18c018bd0cfe95U,
  0x3cd4b7ccbd1d0736U, 0x3cff1c8abc4f3df3U, 0xbd4365343cb1e59bU, 0xbc6c16b83d8af730U,
  0xb8838a1ebd0d7cbcU, 0xbaf274c93c0fa0d1U, 0xbac70c293b868249U, 0x3be7acabbd4ee7dbU,
  0x3c7efd363ceda93fU, 0xbb70a7d73d873c67U, 0x3cd27e633b7c8228U, 0xbc1cbbe43a9b0de2U,
  0xbb0481edbbec9b5bU, 0x3c1621483d2ff07fU, 0xba30c3653b9eb072U, 0xbb6a52aabc252fdaU,
  0xbc1cf25d3d05f9f5U, 0x3c965d0cbc5aff40U, 0xbd844d30bc365308U, 0x3ce79544bbb001abU,
  0x3bfa2f373d5e4c3bU, 0x3c2797d63d3d246cU, 0x3ab3444ebb9e07cbU, 0xbb9f05e73c0a38dbU,
  0xbc3f78dcbab4235aU, 0xbb11c2d1bac980adU, 0xbacdf2a8b9ac11c2U, 0xbc337110bc047e11U,
  0xbb9b0547bba190b9U, 0xbcc1614c3b2a4575U, 0xbbed68bb3c4a0fdbU, 0x3c2f99b3bc9a5073U,
  0xbc34dd2e392e6928U, 0xbc5b8cf7bba45918U, 0x3d0a3a633a8307cdU, 0xbccec2c2bb544a49U,
  0xbc1e8494bc12dddbU, 0xbca0fb72bcc2c585U, 0xbc4c786bbcbfe0bdU, 0xbdb2e04a3ca74007U,
  0x3cfb6231bcf4f5cfU, 0x3cb1123dbc754551U, 0xbcb9acc8bd04fa08U, 0x3aea937dbc17ebf1U,
  0xbd33de583b3b8436U, 0xbd17f1aa3cf1041aU, 0x3baae41ebb8d9cb2U, 0xbc693bd5bc424cffU,
  0xbbb398a23ba884fdU, 0xbbc60927bd224606U, 0xbc112fa53cbef475U, 0xbcc730523c3abd5cU,
  0xbc0cb77c3ba4e8beU, 0xbc86a46a3b3c12a4U, 0xbcddea44bba44f42U, 0xbc178b3b3b2b81baU,
  0x3bde6492bbaf5011U, 0xbc489d6339e0b341U, 0xbbaeda683b7654c9U, 0x3c5a6c3dbcd146a4U,
  0xbb55e80e3cb6241cU, 0x3d13195ebcad18d2U, 0x3c7cd06e3cad4995U, 0xbd430bf43d25f9ebU,
  0x3d369ac63c898c4fU, 0xbd70ccefbbe9d828U, 0x3ca1c1da3bd4aa11U, 0xb94149863b500fe3U,
  0xbbb11b9dbb91c385U, 0xbb5943c63bac169eU, 0xbc4a92cfbcf078cfU, 0xbce9f89f3c2002daU,
  0xbb75bf5a3d2c9789U, 0x3d220a063c033ac8U, 0x3c1d39a0399a01d4U, 0xba69b9aebbfc3bd4U,
  0x3d4b9569bd9ba036U, 0xbac226b8bb1c9587U, 0xbba983773ba674e4U, 0xbc4c361dbbc73370U,
  0x3c05251ebc2567a4U, 0x3e01db94bccb264aU, 0x3d158520bc092d5fU, 0x3d3dccf83d032266U,
  0xbcdce76c3afb589dU, 0xbdb765203d1148d6U, 0x3dd0ae76bc8b0c22U, 0x3abbe3953cf84628U,
  0xbbc2aac03d322669U, 0xbb7a2bc93be57d3dU, 0xbcab3a5d3a02ecdaU, 0x3adceaf03d0aef95U,
  0xbc1499483cbb2db8U, 0xbc9fff5dbd18b935U, 0x3ca7da53bd7b7789U, 0x3d1504303a81a737U,
  0xbd0ef6b8bc97b658U, 0x39a42e59bd52b5b6U, 0x3c0cbbc5bbdf02f6U, 0x3ba0e23cbbba2801U,
  0xba8d675cbc0aa695U, 0x3c9247243c08c37eU, 0x3d22f200bd29b572U, 0x3cca747fbc8cde19U,
  0x3d85464d3ddb158fU, 0xbd1788aa3d877767U, 0xbd043e51bc1daa6dU, 0x3cf1b800bbad7ae4U,
  0x3c120b93bd29f1e8U, 0xbbd94cb73c1921d7U, 0xbbde22993c8ff134U, 0x3b0ff392bb6e4b4eU,
  0x3be7275cbd2957cdU, 0x3ca50eeb3c8b3eb3U, 0xbc902df0bb9a2129U, 0x3c34c09e3ce5f433U,
  0x3d154ad13b8970e8U, 0xbc9ef808bbebd578U, 0x3e11dcddbdb01165U, 0x3c2339393b8a0814U,
  0x3b72e470b89ff14cU, 0xbb34a73bbb458c12U, 0xbb983aabbbf95881U, 0xbd65ace6bc5d5985U,
  0xbd61fcc6bc18eabfU, 0x3d1cfcb53bd29b42U, 0xba7ec046bc978630U, 0xbbcad88c3b2740c0U,
  0xbcf4e709bc19447eU, 0x3d18ee1fbd40d6c6U, 0xbb44ae463c5f32b0U, 0xbbd88c5f3cddd4ecU,
  0x3b44a52dbbcf3c53U, 0x3c05f7d43dd1c9a0U, 0x3a8a0d133db81085U, 0xbbf179f7bc1eeb9dU,
  0xbd2808e03da33950U, 0xbc6293043b12db86U, 0xbd45fe5fbabdfe48U, 0xbc7baec53d45a173U,
  0xba2ad6d8bb3a4cdcU, 0xbcd33ca23c006760U, 0x3a091e1bbc95745aU, 0xbc5cbc7b3c28c531U,
  0x3c990595ba90da3aU, 0xbcc48f21bc491dedU, 0xbc6eaa73bd86c637U, 0x3acc2c07bd8381d6U,
  0xbb59b098bc436feeU, 0xbd32c170bc2dbf94U, 0xbcf4d7e63c1ec4c6U, 0x3c8bf34cbcee8c6fU,
  0x3ca54df73bf025aeU, 0xbc25b30c3bb953a8U, 0xbaac9e6a3ccc0b05U, 0xbceb7e083ca770dbU,
  0x3b6e9c07bc92acf5U, 0x3d92086b3d3411d2U, 0xbc4875243ad282bdU, 0xbbfdf26abc395299U,
  0xbd5f0e13bdfb0fa8U, 0x3b07ce96bbc47f44U, 0xbc7d065fba41beabU, 0x3b02b98b3c3c2bd2U,
  0xbb5f7931bc33d58aU, 0xbc4c0fbb3b885618U, 0xbbf525c6bc40f7cdU, 0xbd1abaa6bce43b28U,
  0xbcd63f9f3ca3ab69U, 0xbd2894033cb908cfU, 0xbdced5623c7c4808U, 0x3cce535bbd6fe51dU,
  0x3c2759193c325afeU, 0x3c0a8e413ca5df44U, 0x3c05515ebb14e448U, 0x3c5d52883c18af60U,
  0xbc3a591f3b8290c9U, 0x3ac7da07bd84624dU, 0x3d1e0d8ebd3116b1U, 0x3d04788e3b4df0dbU,
  0x3cb736afbb4804b1U, 0xba9d55cbbda0a94bU, 0xba2e4b853b96db83U, 0xbc6e76f83be222a1U,
  0x3c672cc7bc71817aU, 0x3c904840bc433862U, 0x3cb45f84bb621925U, 0xbb6d919b3a379066U,
  0x3b6fd208bd2dca27U, 0x3c8620c93d991bfbU, 0xbd14d29ebc9edc5eU, 0xbdfcf0343b04f825U,
  0x3b758b30bcb19775U, 0x3bbe03c9bcaebe7aU, 0xbc9f8870bbfbfa8cU, 0x3c3ef878bab014fbU,
  0x3b63a1953cad558bU, 0x3ccff86b3a315385U, 0xbb119301bd54855aU, 0xbcc04c93bc8a6815U,
  0xbc50feaf3ada8e63U, 0xbd2785c5bb62e27aU, 0xbcb7f5b2bd9c4d66U, 0xbaa6bb0c3aab5beeU,
  0xbd3586a4bb821a75U, 0x3b95f57a3c4b5253U, 0x3c0fd4b03c1d7ca9U, 0x3c0e89de3b85331aU,
  0x3cfb0432bbfa47d2U, 0x3c8f7af53dc75054U, 0xbc225334bc4ded1eU, 0xbd286a29bc86fac0U,
  0xbd8caf03bbb7b1e4U, 0x3c0e2515bd8b5dcaU, 0x3bb51ba7bc53a8caU, 0xbd39dd5a3c9b9184U,
  0x3a6d99e13a057960U, 0x3be661c0bd068a35U, 0xbc36e606bc29f417U, 0xbc99a92fbc9442dcU,
  0x3bef9ea6bd58f3afU, 0xbd2a817c394fba2bU, 0xbcbf07a0bbd7b536U, 0xbc01e1da3d0eff92U,
  0x3bcf9d01bb9c877bU, 0xbb4dbc3cbc2d987cU, 0xbbba1187bc85ddb8U, 0x3c005644bc91e0e0U,
  0x3cf38409bc2ba594U, 0x3b852823bb95267fU, 0xbc049bd8bd65fc7fU, 0xbd1bc1243d596aefU,
  0xbdb08289bc8c981fU, 0xbddc68033c921d61U, 0x3c00c445bcd341bcU, 0xbb59d8fb3bbf4078U,
  0x3b7e68f2bc39cad5U, 0xbc4cd9ef3c2cf057U, 0xbbf775fb3bdd0612U, 0xbc9f5d223d0888f7U,
  0xbc5b6796bd10e632U, 0x3d2a0bbe3d15b5deU, 0xbc9692573983c044U, 0xbc365b1abc090c5aU,
  0xbd786286bcb9dddaU, 0xbca4cd093a78104fU, 0x3c84d5c13bc3a80cU, 0x3b0c44aebd52f04bU,
  0x3c0fb897bb872d2dU, 0x3bd702253c92057dU, 0x3c5cdb88bc1faebaU, 0xbd0c4ef5bd6fe7a6U,
  0xbce64aaabbe33b45U, 0xbd9290f3bcefefc1U, 0xbd9d3b60bcd44909U, 0xbd140d433d1e5618U,
  0xbb7ab42dbd4ce22aU, 0xbccc94c23a380fefU, 0x3ab528f6ba89c9acU, 0xbc4e3919bdc50550U,
  0x3c0cfa863b3a41f5U, 0x3c0c18e73b8d8d13U, 0xbd2b03783cc516e0U, 0xbd635d9339e023f0U,
  0x3cd60d7abbe2fd39U, 0xbcc26b4fbd857a11U, 0x3c485d7f3aa0949cU, 0x3c2b1e41b9d15921U,
  0xbbbf06ed3bc00979U, 0xbb03c92139c34d64U, 0x3d15a1cb3ac20111U, 0xbc8c1efabcdc7362U,
  0x3c81e4063c2cadf5U, 0xbd5486f63d2cebceU, 0x3b34e291bd04e9d1U, 0xbe07850dbb41cedfU,
  0xba3a30ca3c27ef77U, 0x3c71e6af3cfc942eU, 0x3c7e8519bc4648d9U, 0xbb61ca3abc4a0183U,
  0xbaab32b03bae6354U, 0x3c2a5d8f3b3bb72cU, 0xbcbe874e3d38bf01U, 0xbd157b49bcc8e260U,
  0xbc653a343b00550cU, 0x3d098392bb065cbaU, 0xbbd3d5efbd90c33dU, 0x3a55bda2bc25f0f0U,
  0x3bccb0d1bc0d8159U, 0x3c890ba43d08a015U, 0xbc85de78bc6b17e8U, 0x3d1a44883caa6005U,
  0xbba7f6933b570236U, 0x3c329885bd3a9b45U, 0xbb6547753dab1501U, 0x3d25ffed3cf0dfa1U,
  0x3e08ff093c81694bU, 0xbaa8f2233cd6eef0U, 0x3a110c1fbb878d68U, 0x3c8c7dc23d3711adU,
  0xbbf02955bbe0eaa1U, 0x3c9da0123ce33275U, 0xbb164b34bc8608acU, 0x3c9d866cbca4d149U,
  0xbc8005ff3d810dfaU, 0x3d10a798bb0caf39U, 0x3ccf7b463d07e4e9U, 0x3d9f5577bd8c8d5aU,
  0xbc6b28c03b227ea3U, 0x3a6e3a9c3ad503f5U, 0xbc87fbb93c96f8b8U, 0x3b988f013badf247U,
  0x3d148476bc080cd1U, 0x3af57f4a3d57fb86U, 0x3c897f05bc97f5fdU, 0x3c24f0483c6b2ef9U,
  0x3a8a6a993cf58475U, 0x3b366e223cbba310U, 0x3c10478bbbcab990U, 0x3c92348bbb06dca3U,
  0xba7b455c3bc975a4U, 0x3bc83ac0bb2967d7U, 0xbc96e7233d204193U, 0x3c7474de3cbc6c3aU,
  0x3b7f156ebcad4766U, 0x3d323bfabd07afbcU, 0x3c5520433c02465aU, 0xbd301d753cc311ecU,
  0x3cfa46d4bd834d59U, 0x3b6719a43c7b2c83U, 0x3ce7df813be49350U, 0x3b8e4698bce8572aU,
  0x3c56b6edbbadd20aU, 0xbc16e8de3c8519d3U, 0x3b96f28abc57ad9aU, 0xbbf80e82bd4570cdU,
  0x3d66dbbe3bee191dU, 0xbb31a657b8a40797U, 0xbd66c66bbc175219U, 0xbb4c16053d6dfdfdU,
  0x3bfee7d9bc77f2c8U, 0x3ac2d5ec3b650dd3U, 0xbcb4a1ad3c2a3532U, 0x3a2591bfbc8f56cfU,
  0xbcc4552dbbbada4fU, 0x3c556c0b3d3ab988U, 0xbbb1db643d38b0d0U, 0xbc6049553aa399d7U,
  0x3d59d7f2bbb25baeU, 0x3c57c0053d2fab1cU, 0x3b92f0063baaac83U, 0xbc7b83b8bb967c62U,
  0x3bbb87a03c68f6b7U, 0x3c92820b3c8b9c3dU, 0x3b9200073c3c49afU, 0xbbec8d97bbec91dbU,
  0x3c2da876bc257d78U, 0x3c35d2563cfbf756U, 0xbd0b06a13cb26f39U, 0x3d8744a43c6474dcU,
  0xbc14a5fc3d231bc3U, 0x3cec65053a6ee2bfU, 0x3c05c7cb3ae9c2e4U, 0x3b88f22b3b3880c2U,
  0xba7476083aecf1a6U, 0x3d08b1a83c95944aU, 0xbc3214e73bc7e590U, 0x3d0153e53cdfe9a7U,
  0x3becbee53aac3eddU, 0xbc898332bc1a900eU, 0x3c7edd7f3d38057bU, 0x3c80eabd3c9f8619U,
  0x3c1ccc773c5f1653U, 0x3ba191c5bc5dc420U, 0xbaafbcb33aebe2b9U, 0xbcd74c7a3c175e99U,
  0xbc9855d5bbcb6bd5U, 0x3c6764d0bc438e69U, 0x3c486a22bbbeb057U, 0x3dba90dabcb025beU,
  0xbc2dd1d23c8fdbc7U, 0x3c6782643d0247c7U, 0xbb071f0abc968c62U, 0xbc7cc1813b202229U,
  0x3b9ef7f3bc19b9a5U, 0xbc916d653c3bf4f7U, 0x3acce92dbd0233afU, 0x3c3810213d469c8bU,
  0x3c81a227bd2a13a2U, 0xbc4ccc403bc93cf4U, 0xbbafab663c695121U, 0xbd25231e3d15cd42U,
  0xbc54ac403b836cffU, 0x3d29a4a13bc0b526U, 0x3c2baf5b3bc34448U, 0x3a0663e13c8698eaU,
  0xbd39ed913c7f5026U, 0xbbbb1d4e3d063546U, 0x3ae253b3bcb8d264U, 0xbb530b883d8b6bb9U,
  0xbd28833a3cc0ad19U, 0xb986cb86bb6903c1U, 0xbaefdafb3cb67875U, 0x3be20c20b9fb3552U,
  0x3d46ef363ce45e6cU, 0x3c750ae73c107a51U, 0x3c4de54abd0907a4U, 0xbbce2128bcbf1d81U,
  0xbd2d2d493d1531b6U, 0x3cfccab5bbb749beU, 0x3d19ed89396ea7ebU, 0xbc0575233ca0af68U,
  0x3c4a2c27bd7d2655U, 0xbb93f74fbb016cbcU, 0x3baf06ff3bbbc27bU, 0x3b191a753ca28347U,
  0xbb9e51533c7b543bU, 0xbd99003fbc955255U, 0xba2ba533bd3cf868U, 0xbad85a333d1942a2U,
  0x3c79bccdbccd888cU, 0x3dd032a539231b77U, 0x3d0965a33c466ec6U, 0x3a807272bd0fb9ffU,
  0x3b3537283cd938c1U, 0x3bbd1e903d15d9a4U, 0x3bccf10b3c1bbb1cU, 0xbbc08cab3d46e706U,
  0x3a979e3abc6ad27bU, 0xbc0e1fa43b90bf8eU, 0xbc8d00aabc7213f1U, 0xbc283b723aad8410U,
  0xbc8fd47dbccf23f0U, 0x3cf1fda13cac636eU, 0xbbd55bbf3bdc65bfU, 0xbc49df223a9d650aU,
  0xbc0e7079bc89910aU, 0x3c8a3dbbba516667U, 0x3d6172953d6537d3U, 0x3c5bac36bc20b485U,
  0x3c542c413c428294U, 0xbbed11723d059163U, 0x3d05d5323caaed87U, 0x3d511e5cbc3f8590U,
  0x3b60b789bdc681e1U, 0x3c1737483ccdd9e9U, 0xbc4e902a3cf515c1U, 0x3cab0d27bc11fa8eU,
  0x3c353e33bb6e2670U, 0xbca61fd13ac964f3U, 0x3bd0cb72bd5f6f29U, 0x3cde23583ad23b29U,
  0xbcbde41f3bae88a7U, 0xbd213f2bbb0557f2U, 0x3c176487bd387081U, 0xbcd80adcbc3b7c71U,
  0x3cc60894bc0a856fU, 0x3c324f18bd487607U, 0xbc4f4c9b3b76b52fU, 0xbda4b263bc99b4c9U,
  0xbd2daa74bd30f343U, 0xbbf62dc1bbdcdb4dU, 0x3d54292ebd7e51c2U, 0xbdee7164bc28a7f8U,
  0xbdcdc224bc150647U, 0xbd0ce3afbd69f6e6U, 0xbb8c9961bd0a0ab1U, 0xbb9fc8f33c6b9e72U,
  0xbcb633e1bc5dc70fU, 0x3c574822bd2c02dfU, 0xbc4d8abdbc86b477U, 0xbd0e0a26bd6d2dc9U,
  0xbce9ddf4bd99bed1U, 0xbd0159fc3b29d2d8U, 0xbcb6b7e3bcd07479U, 0xbd64576d3da75e93U,
  0xbc832798bc86d333U, 0xbbf1d7cfbbd83c33U, 0xbc79ac35bccaa30dU, 0xbcefc7063b365232U,
  0xbc966c223c9e1fd2U, 0xbdc155443d382edfU, 0xbd791d91bd13b27dU, 0xbb9d44ad3d8f8ff4U,
  0xbd703cca3c5addccU, 0x3d18f2a73cac3c03U, 0x3d9c55e0bd6326f5U, 0xbc3bd9683bde0ea1U,
  0xbc97f831bca72561U, 0xba29dcd8bbdfd752U, 0x3b35a812bcce2e71U, 0x3cbb9db5bc8eb41fU,
  0x3d21cefa3b3b16f5U, 0x3d91b129bd547cbcU, 0x3bb9bc4ebadfd4c3U, 0x3cf949553ca2e0b4U,
  0xbd5c2f4abd4356edU, 0xbc72a18cbc003c28U, 0xbca132aabbfb4597U, 0x3927e49d3d5779c4U,
  0xbc9af5fbbc3ed821U, 0x3a459fa93c0eb575U, 0x3adfeefc3d2b56c8U, 0xbd05435b3c38b22dU,
  0xbc4ce4edbc504f50U, 0xbd9555e53ca59538U, 0x3d8623f63ccfb25eU, 0xbc825004bd17fffbU,
  0xb840de17bd309e70U, 0xbaf5cb753ccc4c55U, 0xbc906af1bc886914U, 0x3abf593abd10d848U,
  0x3bd2dd2ebd42cdb1U, 0xbc98c172bce91685U, 0xbd877bc0bc804ccaU, 0xbc8b394ebbafde79U,
  0x3c8f79fdbac3a4afU, 0x3d4e58bdbd9d09eaU, 0xbc144445bc79ed5dU, 0x3cbf2c1fbc69d047U,
  0xbcc6914dbc779fd2U, 0xbcb08b8aba921cd1U, 0xbcaf5d253d4d5f52U, 0xbd2e1441bc2fd1caU,
  0xbc0e25a8bd3bdf82U, 0x3b546ea4bdcbd778U, 0xbc32a38f3d1539a8U, 0xbce61502bca00950U,
  0x3bd2d41ebdd8d7c6U, 0xbb8b20abbd0654b5U, 0x3ca743f0bb6e218eU, 0x3bad1f58bb79302aU,
  0x3b17ee173d21845eU, 0x391a56dfbcf73dd3U, 0xbc797699bd1febd4U, 0xbd124f0c3d4e3a84U,
  0xbd2af67dbb841a0aU, 0x3d40c8febca9ba2cU, 0xbd9e7090bd5ed11bU, 0x3a6e458ebb981d8bU,
  0x3b95edd8bc7da547U, 0xbc341f583c3e3f53U, 0x3b87ca30bc61562aU, 0x3d139c5b3bd8d069U,
  0x3d46ab2b3ccf7eabU, 0xbd94bac23ca8a071U, 0x3c9d078a3cee2cf5U, 0xbc484c073d490c76U,
  0xbc6374d23b319046U, 0x3cdf66ec3dbc8e43U, 0x3981e05b3be66f2bU, 0xbc2f6ab03c0eb36dU,
  0x3b6850c83bab5d9cU, 0xbc08e4523cc352eeU, 0x3c43d5a9bcbfcea0U, 0xbcea3e6fbd347354U,
  0x3c8c79b1ba749074U, 0xbd3b07883acd5576U, 0x3ce0ca69bc8a14b9U, 0x3c1edcc3bc5a2cdaU,
  0xbccba701bc30a2f7U, 0xbc567e6b3a64c12bU, 0x3c6898abbcf63c9fU, 0xbc2ea4feba849fa1U,
  0xbd7539193b808074U, 0x3d4cf6f8bc61448dU, 0x38264f653d06755aU, 0x3c4e91a3bbf1751bU,
  0xbdb265503bc0d577U, 0xbdb3e9543c63e895U, 0xbbf40ecfbcbabe71U, 0xbc38ddd83c28f0deU,
  0xbca173c6bb52e3e4U, 0xbc462d003af093cfU, 0xbbcfe8533bfce421U, 0xbce01677bc0b7102U,
  0xbc413c933b43fd57U, 0x3c9a2ea7bc0802c8U, 0x3ce60291bb1c30c1U, 0xbc92ccc3bc5eac87U,
  0x3d238faabc7df2c2U, 0xbbf4a78e395d1b53U, 0xbb3e2e773b644384U, 0xbc7eafc4bc1e8bdbU,
  0x3c4200c7bbf2ae32U, 0xbd2c1eea3d250df4U, 0x3be0f15ebcad773cU, 0xba65d7e8bc9ffc71U,
  0x3b400f56bc88c248U, 0xbd96674b3cc07bf1U, 0x3b90bcf63c3b9385U, 0x3b966836bd8395f0U,
  0xb9c32f073ceaea99U, 0x3be191acbc8ffcf7U, 0x3c1e3812bb3a339dU, 0xbc7b24cabd7df791U,
  0x3aa2317cbd4c7295U, 0x3c98348abc5746e3U, 0xbc95ecf5bd5cde75U, 0xbb20d7a339c8675bU,
  0x3d833a783cdf6ee8U, 0xbd11fb45bc1879f7U, 0xbd0f8fc23b7aaaffU, 0x3c0672393c2e77deU,
  0x3c72c18cbab6e0b3U, 0x3bf3ceecbc4523a5U, 0x3bafae583c8c6495U, 0x3b25b60fbd3f8cbcU,
  0xbd8257babc58e616U, 0xbb6248573cb98845U, 0x3ca8826d3d1bc08bU, 0x3d802dd43bcb8737U,
  0xbd2796063dc8abb2U, 0x3ae3419dbd55dec9U, 0x3c4d030f3b1a835eU, 0x3c47d930bc8ca481U,
  0x3aa8c756bd067cdeU, 0x3d087a03bc75bdafU, 0xbc54fd61bc8b3d86U, 0xbb178dc53d83ee33U,
  0xba875910b8797cb8U, 0x3d456104bc15db1fU, 0x3cc37931bdd6fd1aU, 0x3c9043e9bc703f17U,
  0xbcd2f960bc6ce6afU, 0xbc26cc433c8558a1U, 0xbc6a303cbc161a1aU, 0xbbcf1412ba6c0b03U,
  0xbd09bddfbc1ec632U, 0xbb2ba50abd56ae9bU, 0xbcc2fd5cbc0e173dU, 0xbce4e047bcabdf70U,
  0xbd7245723d412a68U, 0xbd27efcb3d8ca02dU, 0xbb71f7113cef134dU, 0x3c9a4dbbbc4b58a7U,
  0xbca96b60bc28c5c0U, 0xbb53ab7f3dbbe39bU, 0xbc436b3e3cd86dddU, 0xbc4168f3bd0faf6bU,
  0x3d0fd94dbcb65665U, 0x3ce82d8fbb9190d5U, 0xbcf23a2dbb9426acU, 0xbda79035bc8dcf6dU,
  0xb9fd6a88bc06b142U, 0xbcf5da6abb8afed7U, 0xbc4bfc4d3ca0bda2U, 0xbba5402fbbd99f45U,
  0xbbec25053c4da25dU, 0xbcfdb66ebbbd6d2eU, 0x3cbd178d3d5ff7dbU, 0x3b7fb3853ccdd8f3U,
  0xbd5dbb58bc8f19b9U, 0x3cd09b203c49299bU, 0xbc536eddbd92dd16U, 0xbc1878213e1c361eU,
  0x3c430fedbb1436faU, 0xbc0f17563ba943d0U, 0xb990898d3e3223bfU, 0xbc546a773b3db4dfU,
  0xbd2387c0bc6f5601U, 0xbced2368bd4ede02U, 0xbc6f128db9efc4d6U, 0xbcfdfc0a3a73d4a6U,
  0xbc4bf26e3e3d1ec0U, 0x3b192251bc25664dU, 0xbce6e799bc1371c0U, 0xbc272b753b8a27c5U,
  0xbb28ea4dbc298f91U, 0xbd4b9f00bc0d0680U, 0x3cb3f373bd1a16aeU, 0x3b6503c33c937043U,
  0xbbaff7c5baa9c386U, 0x3acbd3263c535b87U, 0xbae0e7b1baf86b10U, 0xbc3a24303d20b79aU,
  0xbc14a802bc887910U, 0x3b744f05bc515122U, 0xbb95207c3c30a969U, 0x3c33daadbd9dd855U,
  0x3c5fa1a53c19b48cU, 0x3d05cb97bc4ad7e0U, 0xbb1a176a3b89a63cU, 0x3b6e12ddbb95e4f1U,
  0xbc5f9636bc5b5ce3U, 0x3d27f3acbd0b339bU, 0xbcb98878bbbcc030U, 0x3c7cce32bb254933U,
  0xbba1e882bcddfb70U, 0x3cc13d40bc974d7dU, 0xbcf7411cbafc7c49U, 0xbd22c8193d7cd7deU,
  0xbbe4719dbb40c242U, 0xbc65a8123e04a061U, 0xbd7b30fd3cfc6301U, 0xbd735cfcbd98b121U,
  0x3bc74facbc1e986eU, 0xbc973465bb0f93c8U, 0x3d316ddbba9a69ceU, 0x3b9be22fbccc04a1U,
  0x3c3c2496bc2b4bc9U, 0x3c26b534bcfbeaabU, 0xbcdc0d963c3d94e1U, 0xbd1503abbc91197bU,
  0xbd24aa0dbb113410U, 0xbcae09bebc4723e2U, 0xbb94a8c4bcf08836U, 0x3c18c99fbb95141eU,
  0xbc660d57bc3811c7U, 0x3b5cc846bc0f12aaU, 0xbbd7acdd3ba2c536U, 0xbd9096b03cd87b37U,
  0xbb8f7874bcc3caa1U, 0x3cbfa60c3d03552fU, 0xbd1e73c23bb76bbcU, 0xbd46f40abcfc7907U,
  0x3cf03fcebd1ba307U, 0xbc8281b4bd3702e3U, 0x3bd128543d31e3d4U, 0x3d1c4796ba29695cU,
  0xba9ae48fbb9f849dU, 0x3b5e27063d88eb22U, 0x3b603f013cc682a2U, 0xbd401387b9f3e8ceU,
  0xbb2f9b653d642b8aU, 0xbbd6feaf396ce449U, 0xbc19e676bbcac415U, 0xbc3dd41cbd329decU,
  0xbb8af4ebbc2843aaU, 0xbc8107ab3a107d3eU, 0xbbd4ad4abb9eb6c1U, 0xbcb123753bedaabfU,
  0x3cf7ef0cbba5160fU, 0xbc810513bcab1462U, 0x3b4a396f3c1cab11U, 0x3c06af59bc5a8e1dU,
  0xbd86afb73cdbd1f9U, 0xbd9f0acf3c532c7dU, 0xbd1e9166badb83faU, 0x3bb8127ebb04a491U,
  0x3cc4e7f3bd02b3ceU, 0xba95ad1c3bab52e7U, 0x3bc418913bb8544eU, 0x3a83217c3d2e7eafU,
  0xbc5f073abd8080fcU, 0xbd5b19f63b78b3efU, 0x3ca9fc7abb6ab84bU, 0xbb76b41ebb36ba46U,
  0x3c8d8b38bcbe2d47U, 0xbb331d8dbb7733eeU, 0x3c0ea8773b549f30U, 0x3c09a563bc75c4f2U,
  0x3c8ef0a3bbb013cfU, 0x3d655b6bbbb4f462U, 0xbc962a713c30a474U, 0xbc2a86003b46468fU,
  0xbc1924da3ccb7c7fU, 0xbd5493673d0aa17eU, 0xbb3e20243ca902daU, 0x3cafbec6bd400760U,
  0xbc1021a9bcac713dU, 0x3a04d2d5397dbcecU, 0xbbd01f1dbc997499U, 0x3b9c1741bd0aa5c9U,
  0x3befc10ebbf2f5e6U, 0xbc9c6221bd841ccaU, 0xbc7128c7bc9edd43U, 0x3a97f4c13b13557aU,
  0xbcb9a637bbe0247bU, 0xbd0b92ccbb98c50eU, 0xbbc147893accabb2U, 0xba5490d2bb152063U,
  0x3c8b57c53cb3ec33U, 0xbc68e6c33b472ec4U, 0xba959ba2bcaeb2fdU, 0x3d31c231bd11d684U,
  0x3ca030263d8cdf5cU, 0xbd8a2a913d9697ebU, 0xbd9838c4bc4a91b8U, 0xbcff3c57bc617d06U,
  0xba645dd6bd5b38f2U, 0x3bf9339c3dd82ab5U, 0x3bf713b8bc7dd472U, 0xbc2627543b220aaaU,
  0xbbabfaae3dd75e56U, 0xbc4a79883c03dd7fU, 0xbcc0c803bd922b01U, 0xbba45b31bd41f4fbU,
  0x3cdfcf7cba534977U, 0x3c438f093b813923U, 0x3c8ef0353e02a977U, 0x3c50dc51bb7cd369U,
  0xbcd9e2223b366529U, 0x3b355633bc1e7342U, 0x3b108e053c4e0396U, 0xbd260893bcb0414aU,
  0xbc2a2593bd0ec8b0U, 0xbc7093d13ceb7a33U, 0x3d650702bc85ec1aU, 0x3ccfe72cbc566f41U,
  0xbd3d8d8c3c2c7429U, 0xbcf25886ba943b89U, 0xbc2622adbcb35152U, 0xbc1ada9fbca8ec83U,
  0x3b9594cdbc9e5421U, 0x3a23ec03bc6b97b1U, 0x3c023daa3ce99fcfU, 0xbcc4e3f5bcccbd72U,
  0xbc7563f93d0fc690U, 0x3bf866b9bb7ccfa5U, 0xbb6c4a81bc6b8bfeU, 0xbbe994983ded714dU,
  0x3c237a8e3c03e439U, 0xbc4d39beb8418982U, 0xbc2ffe3c3bf86e87U, 0xbbb57afb3c3d0ec7U,
  0x3d67f17e3b9e6385U, 0xbd6678143cb6fc35U, 0xbc041838bce99a7fU, 0xbc2a06b33e010c64U,
  0xbdad42ca3ce55e80U, 0x3c39fa263d253c5dU, 0x3d1720483cef051eU, 0x3ca15e033c5a9657U,
  0xbc35094dbcb3aef9U, 0xbc9de0423aa74d81U, 0xb88565e6bcb3f5b0U, 0xbcc75704bca358d4U,
  0xbb99bf8bbc0d629aU, 0x3cffdfb93cb1afceU, 0xbc94efe5b9bceba1U, 0x3c7e90b73ca5af92U,
  0xbc78f0eebd6090d1U, 0xbc224a333bb28769U, 0x3aad6eb9b919f321U, 0x3c9618953bb518d0U,
  0x3bc6b3b3bc9eb6f7U, 0xbd4c0d8ebcfff4efU, 0x3cf1de703c1eed4fU, 0xbd2dec01bcb1e287U,
  0xbc0d902b3c4fa887U, 0x3d874244ba7e29bcU, 0xbd475c5bbbb3b027U, 0xbd3fd562bd37e146U,
  0xbbb6e4ffbcc9964dU, 0x3a1414383ccf9a4aU, 0xbbb5ea91395c3075U, 0x3ca69cef3affb96dU,
  0xbd2a4a4ebc9de4b7U, 0xba2a5dcebb921ee2U, 0x3cf9a2593cc0ffefU, 0x399cb1c23aed8554U,
  0x3d2426ec3ca80fdeU, 0x3b075769bcc6c0a4U, 0xbb80d48938f35ba2U, 0xbb3cab1dbb0c1819U,
  0xbc09f410bc981beeU, 0xb9dcd8303ca1690bU, 0xbb9194823ce9ee4fU, 0x3c0941703c25febcU,
  0xbc8c22fa3d2a1a40U, 0x3acd616abc5bd4b3U, 0xbcb3fb52bcf998f1U, 0xbd6713453bdd0732U,
  0x3ad82ed33d3d2065U, 0x3bcc7ceebaf9af7dU, 0xbd3e3037bd6d115bU, 0xbc60d44fbc2ba776U,
  0xbada023c3b97f12eU, 0x3b960f213d114509U, 0xbd749effbb5fefc0U, 0x3d015d9d3b6265eaU,
  0x3bac4b90ba18cca9U, 0x3bf6abbdbbbf4c7eU, 0x3d1a4375bd50e45dU, 0x39b0fc9e3b5a5e34U,
  0xbcb161e1b914bbffU, 0xbbec92ddbc53aee9U, 0x3c5b3fd7bc20c357U, 0x3d95d6bfbc04cc43U,
  0x3b13700dbd07750bU, 0xbbccb177bdff6ec6U, 0xbd4a1a653c079c12U, 0xbd82f7133ce22fb1U,
  0xbdcbce223dad181bU, 0xbd461b163d3bf0daU, 0xbb06560abcaafa54U, 0xbc9b656b3ca42172U,
  0x3cf664083c223f7dU, 0xb912ccee39eb2c1cU, 0x3c5ee162bc836f33U, 0xbc0c28dcbb9769c3U,
  0x3d71c2ccbd168e72U, 0x3d98a25d39d04dc5U, 0x3bdb62ff3b895a9fU, 0xb9c1927fbd980352U,
  0xbb8fff953ad6fa64U, 0x3d4070103c75b1d7U, 0x3b62b520bcf2fb2cU, 0x3c56d6be3c3b6c2aU,
  0xbd4cd0cbbc5416a3U, 0x3d6d59c1bc13cecfU, 0x3dc732453d08be68U, 0x3b83f6e8bcd4acf1U,
  0x3c9c302bbc4b5511U, 0x3e16d11dbb9a2d6cU, 0xbb048f4c3d01208eU, 0x3c41f5ae3d465d56U,
  0x3b3e11f73c16d2b1U, 0xbc2b2220bc6ace6aU, 0xbb3a5001bbd63d53U, 0x3d4b54c73c9b8bafU,
  0xbd21b088bc0a5abeU, 0xbd061046bdc9ac0bU, 0xbd1636583a91338eU, 0xbca670edbb3d88c2U,
  0x3d85424d3df8d477U, 0x3b72e6443b87eabaU, 0x3cccc0303c1c366dU, 0xbcdf6d17bc4214daU,
  0xbc661951bbcdbd70U, 0xbd2f4b573d71fdf2U, 0x3b39a38f3cdb4af5U, 0xbca1268e3c563850U,
  0xbce5cb7b3c4ce75dU, 0x3b5196423c277a47U, 0x3cd9257dbcd9d364U, 0x3c8a1dfa3d22e61aU,
  0xbc1b6bce3cab8651U, 0x3c8334943cbed819U, 0xbc89174ebccab94dU, 0xbc57c3a6bcb49221U,
  0xbcbafc24bc87e2b9U, 0xbae92f683d48dbf8U, 0x3d915d463d0ea60dU, 0x3c9a158dbb0548ceU,
  0x3ca50b8bbbaa9052U, 0x3cbbe9f3bc8e907dU, 0xbbcd9094bb591cc9U, 0x3ca92364bb4ebb4bU,
  0x3b7b85e9bc67e6daU, 0xbbdc8af03c80750fU, 0xbcce1999bd1c8088U, 0xbbd894743ccd75a9U,
  0xbd8902e1bd19a109U, 0xba7123d03d5297a2U, 0xbd26219c3c771580U, 0xbd8e41f33c260786U,
  0xbd12bda4bdb8e0a7U, 0xbb953c743d388f3fU, 0x3d990b00bb02361aU, 0xbaccdd803bf1f3d5U,
  0x3c3ed8e03d861bbdU, 0xbbf1b4e0bb62e813U, 0xbb172804bc8e4dbeU, 0x3b07731b3cb83d2cU,
  0x3c3b37113aa4f12dU, 0x3d4a24f83c9bdacfU, 0xbdaa97f7bcda7fe1U, 0x3d1774043c222670U,
  0xbd0cbe6fbc39bf8dU, 0xbcc5440d3cafc138U, 0xbb1139afbbe958b7U, 0xbcdc37bd3c64747eU,
  0xbab195b9bbd9e546U, 0x3d250c37bc6d0d1eU, 0xbd02f299bcccf103U, 0xbd225dc73c4ecc40U,
  0xbdba4ed5bcb4193aU, 0x3c14daecbd20962cU, 0xbc2f42c03b16de01U, 0x3c4770b53cb98980U,
  0xbc4da451bbfbd393U, 0xbc50d8d6bce109beU, 0x3b9593a53d2a33b1U, 0xbc28d5bc3c481ea3U,
  0xbc409a9a3d593803U, 0x3bb037e6bb7586c3U, 0xbce0b0263a942e0aU, 0xbd148e2abd9e9bbdU,
  0x3c3925ffbbf354faU, 0x3d529fe1bbb1fc48U, 0xbcb892f0bc271b3fU, 0xbc8b1322bbc26187U,
  0xbcd0caa1bc0ea6d0U, 0xbbf89cb83c205853U, 0xbc80c3ec3c8ea92fU, 0xbd5cb577bcb876aeU,
  0xbd9379c93cbb5059U, 0xbd9e74dbbcfd0cd7U, 0x3c604a55bdad0d02U, 0xbbd2e8a53c93492dU,
  0xbc914a0d3ba8318cU, 0xba305be5bc46667dU, 0xba9204bb3c80ada9U, 0xbcef71e93d19a8faU,
  0xbcf21171bab5f134U, 0xbd391641bdb104e0U, 0xbd1f10a3bb23cd67U, 0x3d49d1b6bc2c9fc9U,
  0x3cc528d7bd626b12U, 0xbc4fb0ecbbce9eabU, 0xbc95e323bbb74cefU, 0xbc4f5405bc9a15b9U,
  0xbc9fd7bebb84f6ffU, 0xbdb3b424bb0a0516U, 0x3cc5c975bb0e3377U, 0x3c99d59c3d10ae7dU,
  0x3cec6c57bcf85d35U, 0xbc1ec2663ca22592U, 0xbd37ab15bcb9cb95U, 0xbbcbf2f33d590732U,
  0x3aec1fec3d5232b2U, 0xba3998d23cb7519aU, 0xbbdfcbefbbc88ae2U, 0xbb4f516d3cdaf8c2U,
  0xbb8b1fbe39a6016fU, 0xbd059f67bb54b3c5U, 0xbd5ddd20bb612247U, 0xbc472fde3b0187b6U,
  0x3d1ecef2bce28be7U, 0xbcc46c433dd731d3U, 0xbc4132dfbb5b2448U, 0xbc94f1afbb3cb3f9U,
  0xbc659d073cc5e86cU, 0x3b75d9263c026ac5U, 0xbd8301bf3bed1ccfU, 0xbbe9702b3cfd42d6U,
  0x3d3372ee3d9813ddU, 0x3cce493b3c680b28U, 0x3ca7bbfd3c9e8f4dU, 0x3c1bbb1bbbe36737U,
  0x3b83a242bda1fc0cU, 0xbbb552f83c7808aeU, 0xbcd5112c3b5b89e8U, 0x3c9356f7bc978e5dU,
  0xbae7957e3d6398b4U, 0x3c9851a1bcdd9714U, 0x3be8e4783c0c417dU, 0xbd095ecfbd9c9ddeU,
  0xbd04e480bb921630U, 0x3cb2e8273ad49398U, 0xbd363a0abb53dcecU, 0x3a8791653b9a4fb1U,
  0x3cb24848ba8385e5U, 0x3b1f652abc887de0U, 0xbcded228bbb64dfdU, 0x3d65d3a3bbc7a97eU,
  0x3c8b9f3d3ced0b04U, 0xbd55d00a3cc5bf64U, 0x3aa3a979ba610f9aU, 0x3cbb0fc63c54f0acU,
  0x3c235196bd0b7486U, 0x3d3470df3d141235U, 0x3ba0729bbcc66d2cU, 0xbd26ab613c1d41e8U,
  0x3b0f30a0bbe2508eU, 0x3cb50566bc9aefceU, 0x3c7161a83bc37636U, 0x3c9c96723c127871U,
  0x3cee5200bc4c7825U, 0x3cb71527bad4b8eaU, 0x3cf193a8bbd0e389U, 0xbc55e0d5bd867ef4U,
  0xbc2b1f463c2b0653U, 0xbc91fef5bbcc5e99U, 0x3c33c7b63c5b4911U, 0xbc066873bc147a21U,
  0x3d0b51ffbcde4574U, 0x3d92b7ce3d4c0d99U, 0xbd381f133d100631U, 0xbbab45b43d5c9fd6U,
  0xbd14ece23c8c79e2U, 0xbd5aeb053cddb376U, 0x3c8088003d0579e0U, 0xbc5527463b419c06U,
  0x3ce3fded3d04a4d6U, 0xbc9da74b3b2d70a2U, 0x3caade8e3c742b6cU, 0x3d1e5104bcc8e897U,
  0x3c4a8f45bcf2d404U, 0xbc96965cbd143122U, 0xbb9e7f133b0d433cU, 0xbc5af65d3c55c7e4U,
  0x3c84b445bd46ec92U, 0xbb0b5c58bb272d8cU, 0xbc03c2f0bb4d3728U, 0xbad7f18a3c167dd6U,
  0xbbe366e13cbd5302U, 0xbd15fd78bd2e72edU, 0x3bc57c90bcd8dccbU, 0xbc263433bd1a6a3fU,
  0xbcd387a43cd103d3U, 0xbd71ef13bce649bcU, 0xbc3a33ef3d19ca3aU, 0xbc365fc2bb77b784U,
  0x3c26e16bbc66abd6U, 0x3cb89b2dbc220e3dU, 0xbc7915bf3c01ab9aU, 0x3aebcabcbb284925U,
  0xbd070d643b196fe5U, 0x3c8ac6b9bc9f1053U, 0xbc6f444bbbfdcbd0U, 0xbc913f04bb915281U,
  0x3c0e2e83ba3e5b83U, 0x3ca845753d181540U, 0xbc81fab2bc72a44fU, 0x3ca94ec8bcba1c53U,
  0xbb22d71ebd36315aU, 0xbbfc5f09bc7d1314U, 0xbccea301bd29cb96U, 0x3bbd9b5ebccf058aU,
  0x3d14ee51bb00bee8U, 0xbc886e33bd5bef3cU, 0x3d76b9c23bfd244dU, 0xbccbe7b83bbb10d3U,
  0x3c29369ebd30dfd9U, 0xbcc5bd55bcc55a54U, 0xbc70edcc3c193152U, 0x3bfafb5c3ad3e371U,
  0x3c9d12103c693eceU, 0xbc7ea1d237d6eccaU, 0xbb96d1603bc0cc8eU, 0x3c28f254bd4f6f7bU,
  0xbb5876293b02e91dU, 0x3d13746737a5e0f0U, 0xbd1f4222bd60dde5U, 0xbc48ecc0bc1cb107U,
  0x3c98ca103be29dc6U, 0x3c0b358fbca52290U, 0x3bb740943be1737eU, 0x3c7efb73bcbb2533U,
  0xbcd4cb5bbc8c610bU, 0xbc5acbea3c2734f4U, 0x3d5c02ecbd56e820U, 0xbcab8439bd2c5643U,
  0xbd6553cabc7de24eU, 0xbd0de2923c9da38bU, 0xbb299b1ebc4ea771U, 0xbcc02416ba7f6f4bU,
  0x3c8f6ee5bcfffa34U, 0xbc660fec3d54a726U, 0x3b9a15e53d05fbefU, 0xbc6cf236bcf82fc3U,
  0xbca5982b3d0a7de0U, 0x366404253aaacdb0U, 0x3bba4a46bc0028c4U, 0xbd086bec3d1feee4U,
  0xbb9f463b3ca22479U, 0xbd172bf03bcfde6eU, 0x3c4e13a83c8b5e4dU, 0x3c6e00f13ce84aa8U,
  0x3d535129bccd5cb6U, 0xbc160e6abd03ef74U, 0xbd7cddb9bd906b4bU, 0x3d40e736bcd6efc9U,
  0x3d206d213b13a855U, 0x3c1aa8303cf6350bU, 0xbc66e2133df2bd5dU, 0xbc96a1f7bc656bfaU,
  0x3c02ab693ca2dbbeU, 0xbaa49f58bc450598U, 0x3c640a753c5d0071U, 0xbb91d063bc922778U,
  0xbccefb5fbd28d683U, 0x3bbf115b3cf38ffbU, 0xbc2939f0ba9202f9U, 0xbc139335bc13ccd6U,
  0xbd20ea6d3d11993aU, 0xbac05461bb9691feU, 0xbcdd9249bb15305eU, 0xbc3cb0563d05290bU,
  0xbc6077b5bce49eb3U, 0xbd1a4190bb7ab2d5U, 0x3c129d1f3c305f18U, 0x3cb51a193c1cb229U,
  0x3cc14090bc42cf2dU, 0xbd0171f2bd2e1526U, 0xbd2816f1bb6706f5U, 0xbcc4af543d011e75U,
  0x3abb01c03d359600U, 0xbb8eb0e9bc17b1f4U, 0x3b37bba03c989810U, 0xbaacbd99bc02e99dU,
  0x3c7120bc3c2516d3U, 0x3c2f2cbebc25343dU, 0xbbaddab0bd2c97e1U, 0x3afe093639d97d60U,
  0x3b731b063cbc021bU, 0x3caf369a3e04dc31U, 0x3932ddab3a7d3e4aU, 0xbc3c3562bcab2de2U,
  0xbc60992c3c1d3b42U, 0x3a17605dbc850ae1U, 0xbcae5897b9951affU, 0xbb535b18bd79f71eU,
  0x3c329d3a3dbccc48U, 0xbd3b9579bd26d9e9U, 0x3dbd5ef3bc240d0fU, 0xbc2f507dbcecadeaU,
  0xbc3e9ec2bdf908e8U, 0x3b6965093d464586U, 0x3cb21cbebc7b5aa5U, 0x3cb2f6ea3c09bfbeU,
  0xbba520973c3c36a4U, 0xbb56acd13ca27731U, 0xbcbc575bbd2248edU, 0x3cd6ee81bd3b99b7U,
  0xbba2cd463b356f05U, 0xbc5e4cd83cb3f131U, 0xbc68d9683bf4bdf8U, 0xbc97ff8e3bdc459cU,
  0xbd083b443c9a6a37U, 0x3ac75a47bca5a998U, 0x3c724cddbbdc7364U, 0x3d37ad2c3b80d411U,
  0x3d311cd1bd3b8436U, 0xbc6ac1003ba88d2fU, 0x3cf11b5cbcddc697U, 0xbc6884f93ce3e760U,
  0x3c18f4c43cf3edb5U, 0xbcbfd3e13db3ff2eU, 0xbb103b9cbd46478eU, 0xbd3a540d3c32ffb0U,
  0x3abe7f2d3c37a021U, 0x39ce5c44bd6872edU, 0x3c7e7c5abd0c62aeU, 0x3d4f18753be814b3U,
  0xbbdd8c6dbdf5ea13U, 0x3aa09b51b9ab5aaeU, 0x3ceeb15abc84329bU, 0xbd3201183d56e924U,
  0x3b47d3ab3bb6a006U, 0x3dd0cbae3c30bb49U, 0x3c843e0b3c6a750dU, 0x3cbc4d2ebc0d171bU,
  0xbb1b0ed7bc1786e2U, 0x3c7c3ee1bd67701bU, 0x3d81d34a3dd1ed81U, 0x3d08e6ed3dac8b4bU,
  0x3d1691b4bc6b4b67U, 0x3daf51e03cd69effU, 0xbd5f1c28bdce98acU, 0xbba42a52bc029e2fU,
  0xbd367fc43a961883U, 0x3c803603bc95afd4U, 0xbb2d10d1bd257278U, 0x3cadc5e33bbb59a2U,
  0x3c5b61a0bca0521fU, 0x3ab4569cbd87fbfeU, 0xbc9dfc2f3b7387daU, 0xbcd2a5f53d221b90U,
  0x3d82c9283d2b4332U, 0x3c6143773c2d1a37U, 0xbc10705d3c53a3a0U, 0x3c4eabe7bc90aed6U,
  0xbc2252163c589b40U, 0x3d25cd85ba262308U, 0x3ac5cc7dbd4bad6cU, 0x3d547904bd40f291U,
  0xbc80b72bbd871149U, 0x3d59e9163cabc596U, 0x3ddc6b4c3a25f6f7U, 0xbcdc8e5e3cfe6963U,
  0x3c21ccda3d83598aU, 0x3d97e7123cd57e78U, 0x3c9f8e1cba76a75dU, 0xbb883e1d3c0062f8U,
  0xbc1c7d713b4dfc01U, 0xbcb7d02abd42bd25U, 0x3d76e6af3d3bd52dU, 0x3ccc2d873ae6a394U,
  0x3ca05c9a3c723ee8U, 0x3cce68663d41ccdeU, 0x3c57733dbbc7ab89U, 0x3ca5772a3c32a1f2U,
  0x3c63c5df3cb4c97eU, 0x3c52bf04bc6820ceU, 0xbd42801abc852399U, 0xbb8abc58bd46bffdU,
  0xbcb15504bda238e7U, 0xbd0c9506bcf3769bU, 0x3d554752bb4766f9U, 0x3cb025bebc94cc2bU,
  0xbd1e4e893d9701f4U, 0x396172f73c5e1ec8U, 0x396010013cb1b75aU, 0x3b284f14bc1c52c5U,
  0x3c73fcc53d8855c3U, 0x3caf8e013c3e269cU, 0x3ce703b33c75308dU, 0xbc94cad53dd35efeU,
  0x3bcbe9113a0eb665U, 0xbc323dc03b26a60eU, 0xbc8a14c9bdc39595U, 0x3c49f2fa3c23587fU,
  0xbb185f323b5d0f24U, 0xbb410b01bb0b61f0U, 0x3c89eb24bc2a4b20U, 0x3d1778583a97c5bbU,
  0x3d003f2b3c496f12U, 0x3d3922a83b833312U, 0x3d351c13bc81c085U, 0xbc7efa23bc8dc88eU,
  0x3d084e5abcddd19aU, 0xbc58a428bc7a45e8U, 0x3c1b04c53d3ed05dU, 0x3bc1b4053b3b8474U,
  0x3c702cb53b0f58f3U, 0xbc2ff415bcda0ba8U, 0x3c985fb0bc7937c8U, 0x3cf3e3f5bbb9f68bU,
  0x3bc4dcadba907659U, 0xbd1734ecbbb68c08U, 0xbd3b68163d0be6c7U, 0x3cfb0f4abc771dfeU,
  0x3c0b13c43c991776U, 0x3af63a953bb2dee1U, 0xbc7d385ebc7a2cd4U, 0x3bb2696d3c66c698U,
  0xbced009ebc679562U, 0xbcabffec3cc713b7U, 0x3d52ac583debd5e1U, 0x3d31cbf53d99036dU,
  0xbd2a23b7bbf0a364U, 0xbd950a933ba4683fU, 0x3d6f9b58bce01637U, 0x39d4b8973c33ff74U,
  0xbcde7b12bd434f01U, 0x3bb09eb93a1c5be0U, 0xbcc9e58d3c1cbb01U, 0xbbc530103cea1d2cU,
  0xbcf816f0bba78b24U, 0xbd5ba000bd929bbdU, 0x3c10c9b43aabc1b1U, 0x3ca7ec333c982905U,
  0xbd1b034c3ddb765dU, 0xbb4469003c290a49U, 0x3ca2eea43c84de83U, 0x3c9258e8bd47e372U,
  0xbc18528b3c5fe5a3U, 0x3da7a177b8ae5202U, 0x3d619738bd4316c7U, 0x3d6743efbcde85b9U,
  0x3ba495423d73da13U, 0x3ca6b64e3c332b2bU, 0x3d268f893d4fce9fU, 0xbc6cac723ddbed90U,
  0x3bcf29533d155c99U, 0x3c9a3a3cbc5f82ffU, 0x3c094c353c7745feU, 0x3b84b8063d02e736U,
  0xbc2fb08739057113U, 0x3c22987c3d5d73e6U, 0x3cab7a3cbbc2e5a5U, 0x3cedf64f3a02f99cU,
  0xbd05da33bc27bcfcU, 0x3cf9b3f0bce3becdU, 0xbc90b1bb3c4f5d30U, 0x3cf201933bab3cddU,
  0x3bf8df1fbd0a8195U, 0x3c1af5943baf4f61U, 0xbd903c8fbcd0de3dU, 0x3c93c990bc14562dU,
  0x3cd51830bd3a5a75U, 0xbd8721cdbcae8375U, 0xb9b933b23b1d1292U, 0xbcb956e8bd3c7b06U,
  0xbcf1efcb3dbb9a4eU, 0x3ae3ea00bd3b705aU, 0x3c9a065a3d752cf8U, 0x3b1faa7e3bd5e6d7U,
  0x3b85da1fbc42ddbdU, 0x3d125cad3c87af73U, 0x3c7fcdc53dab90d2U, 0x3d14c4333d8a2875U,
  0xbba60616ba73bca3U, 0xbc6ac2a6bc7f68d6U, 0x3da3f59abd000561U, 0x3c1028003c5856e7U,
  0x3d01dbf1ba06f14fU, 0xbc0cabb3bc86dcb9U, 0x3c11d183bc94e3d2U, 0xbd01f6ef3c906edaU,
  0xbcd6b8a23c5e50f9U, 0x3da7c291bc027c12U, 0x3c7e7a9c3d33cf4aU, 0x3d60a1aabd1be8f3U,
  0xbd96bd8fbb914463U, 0x3b9583973d3fb096U, 0x3c9517c23985461bU, 0x3d0c43d8bd1c4c4dU,
  0x3bb2d836bbab91bbU, 0x3c7bb571bd061837U, 0xbd38ec223c0db6abU, 0xbcf232af3d73564eU,
  0xbc51bc173d40270cU, 0x3c3545d8bb06de54U, 0xbd815f703d0e4e46U, 0x3ba4a2953de47d85U,
  0xbc33de20ba4f2110U, 0xbc8538d9bb29f8e1U, 0x3bc2d70abd71d983U, 0xbc2a51e73be110abU,
  0xbcf6b6f13ca0925bU, 0xbc624f943cbfc431U, 0x3d02fcec3d8bf206U, 0xbc58050b3d207879U,
  0x3ac676f7bd816730U, 0x3e28a873bca17f69U, 0xb9cd33a0bc034a0eU, 0xbc4835c13d6dd4b4U,
  0xbc0325acbc25adccU, 0xbc59c562bc1cbc4aU, 0xb9e98c773d593e6cU, 0xbc67a1393ce3fa86U,
  0x3d625a7f3c92df98U, 0x3dd04cfd3e095e4dU, 0xbd4f651bbb9c7d2fU, 0xbdae4f5a3c370557U,
  0x3d1ad74bbdacab13U, 0xbc577795bbb90daeU, 0xbc84c546bb8c20abU, 0xbb4c5482bc00c2b7U,
  0xbc8cddca3cb670f4U, 0x3db5e8e7bbe9d7d9U, 0x3d6784173c52b5cfU, 0x3ce832c3bddc6614U,
  0x3d8871da3ccb7affU, 0xbb5ca9bb3d74f7e1U, 0x3d06e7a4395b6f27U, 0xbd051395bb803eecU,
  0xbad4c09ebc00a4ccU, 0xbc450ec33d7e03c4U, 0xbc916b9abc13ace9U, 0x3c1722cd3c8e060cU,
  0x3bc476073b744906U, 0x3cdee1b9bd12fc92U, 0xbd04469e3d3badaaU, 0x3c719993baf6c24bU,
  0x3d7b6a8fbcb10190U, 0xbc9521c43c2ca76eU, 0xbc83300dbc1dcca1U, 0x3d854d13bbc5623fU,
  0xbb253ff83d3e4b59U, 0xbbddcda8bc89fd40U, 0x3d3960463bb96fdeU, 0x3da4d0763c28c37aU,
  0xbdaf16223e0b1cc9U, 0x3cd52d2f3df15b12U, 0x3ab8fcb4bd0fef27U, 0xbd2ea07e3c298fe4U,
  0xbc914855bd353ba4U, 0x3bff2349bc0950c8U, 0xbd5418d0bce03168U, 0xbb925514bc64ab1cU,
  0xbd06248d3dedc5cdU, 0xbbfacfccbd2c012aU, 0xbc83c48fbd0da84dU, 0xbd560cc0be00f80cU,
  0xbd4a00cd3af771b2U, 0xbd087fafbc3cd9d3U, 0x3d9987b2bdf19c05U, 0xbc483ae93cc6fbe9U,
  0xbd12f1a6bc3d50abU, 0x3c7a34213c2e153cU, 0x3c0d046ebcbe1efcU, 0xbbdd59ccbd43ff6bU,
  0x3d9ea4af3cabc05bU, 0x3c3d36d93e198476U, 0x3d1f248dbc2d48beU, 0x3e715137bd0156ccU,
  0xbbdd4b0fbcdadf00U, 0x3c6985c63b451550U, 0xbbff7305bc54a6c1U, 0xbc6fa802bc7b572bU,
  0x3c720e7b3b0e88f6U, 0xbcc90391bc928b99U, 0x3d8b496bbd68ff0cU, 0x3d1945903d183d5aU,
  0xbc10b9b0bd9fc262U, 0xbc6dfd56ba8a2553U, 0x3bf4519abba4b14aU, 0xbc39883bbdba0d2cU,
  0xbc636f1e3d071ee5U, 0x3c6620a2bc38ce9aU, 0xbc5e977f3a9f39a3U, 0x3b4978a0bc80d5ddU,
  0x3bb5e25bbd5e3c77U, 0xbd6fa7ba3d15b863U, 0xbda54e07bdf304adU, 0xbc0500c5bbac2826U,
  0xbd5bd0afbcfa17d8U, 0xbdcaece43c555b1fU, 0xbd44e446bd233846U, 0x3cc7e91cbb8d2711U,
  0x3c8b128cbcb6c5ebU, 0x3c9ca6fb3ce24812U, 0x3b17376e3bb3e075U, 0x3d23dea9bc2e1a0cU,
  0xbce0e4a1bba44d28U, 0x3d362b32bd100b5cU, 0x3c5930daba983fcbU, 0xbc49c2183cb059f0U,
  0xbdbeef133abff006U, 0x3c2e5082bb8bc9e6U, 0xbcb2c7b7ba978d3cU, 0xbafdbf16bcb24df9U,
  0x3d0c8806bc6c2709U, 0x3d15a3883d85078dU, 0x3c61d1c1bb6537eeU, 0xbd125e5ebd89cc71U,
  0x3b8c9b14b9535e03U, 0xbb8d3fcd3d05f856U, 0x3dfec0ec3c936525U, 0xbd76e1fabc90552cU,
  0xbc666b50bd942a87U, 0xbd30c180bc954579U, 0x3c34e4d63c73cf93U, 0xbc6f390dbdc609ddU,
  0xbaf13b42bcfafd28U, 0xbba76dd03c7429c0U, 0xbc53b67ebd69494fU, 0x3caeec9b3b64c25bU,
  0x3d4ed010bb971111U, 0xbdacdbd13e359280U, 0x3a47610dbc045cebU, 0xbc9c28f23c299b6eU,
  0xbc18d7acbbab7c7eU, 0x3be5fa5c3cafd5f5U, 0xbc9b07b63d1b02a0U, 0x3caf75e5bc8c83a2U,
  0x3d5afb0b3c2e460aU, 0x3cc391ddbdb1478bU, 0xbc3c24513c5699c2U, 0x3d771826bcd133ffU,
  0xbd8149783cfc5c97U, 0x3c33bd59bb912878U, 0x3d309d473d68156fU, 0xbccb14023c3aa01fU,
  0xbad3341d3d374d91U, 0xbc3a124c3cb14a08U, 0x3d3dce243b661cd3U, 0xbcc589c53d8c1458U,
  0xbc549734bb16f455U, 0xbcebea2a3a4d560aU, 0xbdd86cb93d3d17b4U, 0xbc008d08bc683036U,
  0x3dc243a53b2f97c4U, 0x3c05dc6eb8a5dbbfU, 0xbb68c01bbd1b5987U, 0x3d097559bc89678bU,
  0x3d3ea776bd01052dU, 0x3bc76fdcbd269e26U, 0x3bc17cb83cce626fU, 0x3d0205b03be05ae4U,
  0xbd57bafbbc01ba15U, 0x3d2164e7bd1fe276U, 0xbc8058da3cffdf25U, 0xbc4a6811bc86a71fU,
  0xbc88c648bc6b765eU, 0xbb8327a43c55ac6eU, 0x3cea70113ca01c79U, 0x3c80170f3cf613dbU,
  0x3dee24db3c187f42U, 0x3d9852c23b106eb4U, 0x3b5ea21fbced41e8U, 0xbd851a2cbca9ef61U,
  0xbc02a4e6bc514a0cU, 0x3cc751ac3a9864e7U, 0xbafb03c9bb334eeaU, 0xbc8a7989bb8c654fU,
  0xb969c41a3d4d821bU, 0xbd01cde83d048c3fU, 0xbd116c56bda0fa1eU, 0x3cf67a13bd04896cU,
  0xbcaca2f23d4cf063U, 0xbcf65204bbdc0b28U, 0xbce498aebc9562e5U, 0x3bb70745bc9c13a4U,
  0xbc666a80bcc0336aU, 0x3c5bfb2abc462df3U, 0x3c20c7c2bd08ddc9U, 0x3c2cbb9ebc91a05cU,
  0x3bdac2113d5444f9U, 0xbd355584bd0a1d40U, 0x3c701645bab6994fU, 0xbbf6a7233cdfc339U,
  0xbd68a5e93d96cce8U, 0xbc427fb3bbee8862U, 0x3d2eb79abc00f5f7U, 0xbc6051103cfe4280U,
  0xbcf173b5bc27d14aU, 0xba9f1b25bb7430a9U, 0x3c27b828bc4b748fU, 0xbd5169f739e5a9a4U,
  0x3c08994e3c01a5ccU, 0xbcf4c2f7bc795f9aU, 0x3cf65bcabc85af10U, 0x3c39d14abc76c150U,
  0x3a04b9923ba4ac1eU, 0x3cc0650c3c913f33U, 0x3b88acfd3c31efc2U, 0x3bf8d55d3c2774ddU,
  0xbcd6b7c33c280284U, 0xbd1acd51bd44d40eU, 0xbc20cd1d3c90fbdbU, 0x3c9319e1bb18df9dU,
  0x3cb17799bc6c0ed8U, 0x3bdd4c893d4398a8U, 0xb96f20a23c04ef9fU, 0xbcd1b1e23b366712U,
  0xbb038c683bd92a52U, 0x3bfb6aa9bb9e9db6U, 0x3d15c4c83cd9a43aU, 0x3d3723083b45372eU,
  0x3c9846493c46566eU, 0x3ca508923d29a49bU, 0xbc9c88ccbcc78c23U, 0xbd1bae733c8d5bf4U,
  0x3b4b94043a9b024eU, 0xbc376a513c72e1cdU, 0xbc96664cbc362589U, 0xbc825f0f3c088da9U,
  0x3c6f586fbb42eac1U, 0xbcb5896dbc2d12c6U, 0x3b7fe94cbd552537U, 0xbc59ddef3b216b5bU,
  0x3c341a583b94b830U, 0x3c9ade0f3d04ed54U, 0xbc88388f3c152d14U, 0x3bc804ecbab75e8aU,
  0x3c6fd4cf3b4a6fb9U, 0xbba829b53c89dd34U, 0xbbcb34ae3c612e12U, 0xbc7dbb06bbbd62a3U,
  0xbcad6f7a3cc02b5dU, 0xbb91fefb3bf73254U, 0xba219757bba1cd0bU, 0x3c19636dbba2fdd5U,
  0xbc7cda453c033bfdU, 0x3c5f0be83d1d4133U, 0x3c486f5d3a9f55daU, 0xbc8572423ceaa31cU,
  0xbb0ce02cbbad5ce1U, 0x3bacbb87bc889ccaU, 0x3b9824c9bd27bbd3U, 0xbba7b0f33c9000b4U,
  0xbcf592303d1f88edU, 0xbb838a413b0a594eU, 0x3d7afe7cba2d9a30U, 0xbc3765e03c23786aU,
  0xbc44e0743c67cb09U, 0xbbe2f9f53bfa682dU, 0x3c8394013d1ef18aU, 0x3ad7b5a5bc0a8579U,
  0x3d1f0a873d5ff137U, 0x3c029b9d3ce60b87U, 0xbd4764dabc02cb2dU, 0x3c3084a33d5b1cc0U,
  0xbcda0fc6bcb80169U, 0x3cdc1ed8bbfe5d75U, 0x3b9c20643d69f833U, 0x3bdb2e1a3cc0dca8U,
  0xbca507b1bc1a08d6U, 0xbb994152bc0569ccU, 0x3a01b302bb8980cdU, 0x3bfd7fcdbc743afcU,
  0xbcdd1bfb3d32694dU, 0x3d8e4394bc5d7e82U, 0x3c6a251c3ba6b3b5U, 0x3cee94343a6c994aU,
  0x3c7cf4a4bcdb1b13U, 0x3c523241b91bf364U, 0xbb97cfe63c2d0f79U, 0x3c7d5e15bab8f49bU,
  0x3caa0fcbbb6b865dU, 0xbc2353ae3c875e53U, 0xbc903fc33d0da442U, 0x3cfbc38cbcd4427bU,
  0xbb1c07cdbb1f73b5U, 0x3d4f0a7abc18cb00U, 0x3c5f51f23c0499dcU, 0xbabb71e7bab93809U,
  0x3c070f923c6d09ccU, 0x3c28a9f7ba0ac8f2U, 0xbad18e7d3c4c98a2U, 0xb9be31c63ca36c6bU,
  0xbbbf6815bc3e3fefU, 0xbc63ffae3c0143aaU, 0x3d03b6323a58a097U, 0x3d47fd343b9ea5caU,
  0x3c15d846bc046923U, 0xbc4df5613cc7b419U, 0x3bfbf97ebb29fb73U, 0x3cc96ffe3c8e7929U,
  0x3aabdd9f3b7238a0U, 0x3b6aa1153d0da56dU, 0x3d2c30ba3bac6050U, 0x3c284ff63c9ba077U,
  0xbc530dbbbb517012U, 0xbab05847bc88b704U, 0x3cd00e7c3d0d0a14U, 0x3d3910cebce34308U,
  0x3ccadc33bd309e42U, 0x3a001e86bcc1f41fU, 0xbbaf78b63d0deff7U, 0x3c43d2733c1bccf4U,
  0x3c04a15b3c208bb4U, 0x3cbe44bcbc91ff25U, 0x3bd42978bb962b03U, 0xbce4f860bccf0fafU,
  0xbcc173ea3b1a34cdU, 0xbcea00da3c21024fU, 0x3cf9f0b8bd06175cU, 0x3c8edfc53c23f53cU,
  0x3c4562ec3c5b34ccU, 0x3a9faf75bad9f078U, 0x3c87f6eb3be017f0U, 0xbc14f6723ae95685U,
  0x3c0656c63c11906eU, 0xbc9c37e83c82000fU, 0xbc90aa8c3c88a22aU, 0xbcbee3773d417628U,
  0xbc22d8613bd0f6a2U, 0x3c902785bcd14910U, 0x3c624ce43d31d381U, 0xbc24e5503ce5fa25U,
  0x3c306b7fbbcf7b32U, 0x3ac41aca3d0532e1U, 0x3cce878abce0a969U, 0xbb639d62bb418df1U,
  0x39164e113bdbe757U, 0xbc4bfbee3b47d8f9U, 0x3cd6d2a83c5381d9U, 0x3ce55d9fbbd97b98U,
  0x3c58616f3a043c16U, 0x3b0b1c8b3c4b3775U, 0x3c30d1153acaad6aU, 0x3c29d38bba34c6afU,
  0xbb990dcebce2849aU, 0x3d0ec536bc9bad83U, 0xbb629a633c200b4bU, 0x3c0fe4ce3ba855b0U,
  0x3cf794e43c0da64eU, 0xba75c7f439609f3fU, 0xbd2bb13e3c51d5a2U, 0x3bdbdbd43d0d656cU,
  0x3c0949b63bfdd57fU, 0x3b8b36813b117bd5U, 0x3ba2f79f3d1f6456U, 0x3d1706c9bc01b65bU,
  0x3bb748dabcb73788U, 0x3b48d0283ca28a01U, 0xbc5343053bbef0b0U, 0xbc53e05e3bbcc9ddU,
  0x3ca3d88f3b7fe644U, 0x3c8269713b9c68c2U, 0x3c7370ae3baeb380U, 0xba8024363b03ee22U,
  0x3c9436493bfda0ccU, 0x39e22b84bc985fffU, 0xbc8df0fbbc37e38aU, 0x3c774222bcb0e5d3U,
  0x3cb1578eb9198a48U, 0xbd06d184bd323036U, 0x3ca28f4b3d5425f1U, 0xbd0bff8f3cbaca52U,
  0x3c765595bc052be4U, 0x3bc28c343c070fccU, 0x3cc626613bcac1dbU, 0x3b0feca7bc3d7fbaU,
  0x3b7cacd8bb9abaefU, 0x3cdd3266ba3d5decU, 0x3b1a3cfdbc9f3d20U, 0x3cc888f83aedb1e2U,
  0x3d10111c3a0c36bfU, 0x3d39d0e33d45cba2U, 0x3c800ec73c61139cU, 0x3d60a9753b31c63fU,
  0x3bacd58b3c914cd0U, 0x3c776f093ba2f3b2U, 0x3d8b1b5c3d5e46f0U, 0x3d1d482c3ccd7c6bU,
  0xbd1c872cbd8c14b4U, 0xbb109c363e0879f1U, 0xbd3a16a53cc808acU, 0x3e6bbd803d120ecbU,
  0x3c8c51f2bc2e4c0eU, 0xbc0694083d189f97U, 0x3b2dd737bb3552eeU, 0x3a28bcefbc8de5c9U,
  0x3b7f17873de0c000U, 0xbca1758dbc124aa0U, 0xbcdda536bc5ff974U, 0x3cb4ebffbd03e959U,
  0x3d5f6c75b818a86aU, 0x3d268f90bbb60b54U, 0x3dd55fedbd30d1f4U, 0x3b0cc3863bbc6917U,
  0xbd4615f53bdff70bU, 0xbcc9cd6c3c5be4c2U, 0x3cdeaa77bc9256e5U, 0xbdd10b79ba1b80caU,
  0xbc8f0e4dbcef4c49U, 0x3d6c3383bc16a128U, 0x3bc2b7dc3c6ff1bfU, 0x3d40d316bc00ca45U,
  0xbc9ce040bd26995aU, 0xbd5b67ba3d97459dU, 0xbc8cf2743d2430a7U, 0x3d3b04ba3caa125aU,
  0x3a8dc3c13baf5ad2U, 0x3c03b8c63d743c6cU, 0xbc15a08f3c573943U, 0xbc95891f3a676e76U,
  0xbd0a3134bc3c973dU, 0xbba3a75c3bbed303U, 0xbd0785ddbcaa9af9U, 0xbced991abd672455U,
  0xbc247983bbca4608U, 0x3e199296bc276effU, 0x3b4503c9bcb05569U, 0xbc5084d6bc38f020U,
  0x3d27afdebcf5052fU, 0x3d750f1d3c87956fU, 0x3ba99c943d9b10d7U, 0xbc139f7d3d3fe031U,
  0xbd3d9a143bd9bc80U, 0xbcf392c9bbc37142U, 0x3d9b9977bd89670aU, 0x3b95f80b3d8ff4cbU,
  0xbcb02f073c9a6230U, 0x3c22d9fc3bb1cb3fU, 0x3b89388c3a77cecaU, 0xbbdb041cba58a6b9U,
  0xbbc6b1ab3c8fe38eU, 0x3c9607413b86acb3U, 0x3bc67c53395ce1e0U, 0xbcf9a7393b76f1a8U,
  0x3bc418f3bd531c05U, 0x3aeb67d93c83440bU, 0xbd1b5ba1bc3367eaU, 0xbcb186933c6dbf49U,
  0x3c2f9f1cbc90667dU, 0xbce60b043c2dd711U, 0xbcb50f4b3c05884aU, 0x3d941301bcd3741eU,
  0xbc3b07b5bb610375U, 0x3d2b40bd3ba590d1U, 0x3d0f6408bcf1b818U, 0xbd643197bd3d30c7U,
  0x3cd91544bbea7fb6U, 0xbc005ba33c333e2cU, 0x3c332e9b3b7445a4U, 0xbbd20ce4bcbcca87U,
  0xbd00f716bc87fa5dU, 0x3c5e312d3d236da8U, 0x3b5aaca73b580672U, 0xbc1da768bb45d4e5U,
  0x3cb134a83d3aad85U, 0x3ab3153a3bbf7280U, 0xbbb8dc393ca53af5U, 0x3d4211743c0ae23bU,
  0x3c3e2ca03cc64404U, 0x3c7b33843c01c699U, 0xbd1fbfdd3cf42dc2U, 0xbd3eacf5bcd70035U,
  0x3d80f6bebd936336U, 0x3d9b3c8b3c886bd3U, 0x3d6475113ad17d2dU, 0xbbe8f5b6baef8af5U,
  0xbc7d96653aad4f65U, 0x3c5dfb653d29c903U, 0x3d7a53a2bc9d25aeU, 0xbc9d5d86bbff93b2U,
  0xbb2f09b53b8f070eU, 0xbccae608bc3f09ddU, 0xbc84ce3c3c48394dU, 0x3a570780bb9afa29U,
  0x3ba5454d3beb06ecU, 0x3b9a0bb4bcac122bU, 0xbc236b443d0b5b9bU, 0xbb8d2c87bb8da024U,
  0x3d6822483bc2b8a5U, 0x3b9ffc03bc77ed81U, 0x3c3c9810bc8806f9U, 0x3b0b0078bb134b03U,
  0x3c14e216bce78391U, 0xbb8206d1bd084a3eU, 0xbd278a683bfa35cfU, 0xbd1af56e3c37c840U,
  0xbd60e0123cc003d9U, 0xbb5752eabd6a0181U, 0x3b79bbc1bd0993f2U, 0x3b8a26b53d100c40U,
  0x3c6b4c453ba89321U, 0x3c1c7c4c3ce9b3c8U, 0x3b95cef83d070d12U, 0xbc4d5b11bcfc75f6U,
  0x3d06446dbcb3d555U, 0x3d7918fd3a821841U, 0xbc40c4dfbd16d0b2U, 0xbc6c5c84bd8db42fU,
  0x3bb2667ebb362726U, 0x3c5b54d03c0bf880U, 0x3c371e72bcb69828U, 0x3c84b562bba0a89aU,
  0x3dabbbb33d036fe4U, 0x3e0d53b53d357400U, 0x3d55d9c4bd82ee81U, 0xbd078efd3db71633U,
  0xbd5f3a16bb38466cU, 0x3d858bab3dc514ddU, 0xbd72e24f3ca1591bU, 0x3cc2aaf43d2c986aU,
  0x3c04b9e2bb7ca030U, 0x3bb237093c32bdd6U, 0x3b8c71413ca71579U, 0x3b3c8d04bc5c3f2dU,
  0x3cbf450d3cb6849bU, 0x3cecfc60bdbfa063U, 0x3cedafd1bb0d4979U, 0xbd8545023d2d23d7U,
  0x3d794e36bc0aa0f9U, 0xbb83687b3c1d1168U, 0x3da0cba73b730f8fU, 0x3becbd853cf3d050U,
  0x3c5065b0bc43d044U, 0xbd662b2f3d259539U, 0xbd826141bc316d80U, 0x3dc659b8bd6e6f71U,
  0xbd52d65cbcd7f882U, 0x3e647920bd13c3bbU, 0x3c090100bc807e95U, 0xbd3fc585bd739436U,
  0x3c0e30303d6cf6e2U, 0x3d81cef6bb97c28cU, 0xbb5e2973bc969d40U, 0x3c488ba83d768ee2U,
  0xbcc42a20bc2a37a7U, 0x3bbce5c53d4b6b15U, 0x3cf82715bd5cf3cdU, 0x3d546c5b3b593dc6U,
  0x3d85e5903c04c77fU, 0xbcaa19623d88b690U, 0xbc23c9f1bcb8091fU, 0x3d8a3c44bbe4494bU,
  0x3c8d2e9ebc67b819U, 0xbc625c8b3cc59b89U, 0x3d39e28abd352d51U, 0xbbc3bc2f3d06e5f8U,
  0xbcdc76933d12845aU, 0x3d2dde953b90a7d7U, 0xbd1271c4bc5ddd7aU, 0xbc9d03453d5c916fU,
  0x3c96d242bb300a69U, 0xbcde0b203d3b11d3U, 0xbb494967bc02fa7aU, 0xbbc10e6f3c14fc85U,
  0x3c92fcab3db66415U, 0x3b940ed83d1c571eU, 0x3cd05d3fbbf5bf3cU, 0x3cdaf29dbd7743f1U,
  0x3c9c5e4cba9dbc13U, 0x39c5aa36bc818984U, 0xbd1e3bfa3d98b6e2U, 0x3c3f09d53c45beacU,
  0xbc92b3f33bcf05abU, 0xbc8097e53c101d48U, 0x3ca4c74a3cb0f5b2U, 0x3d16ebce3d165ee4U,
  0x3d21ff583c53fbf1U, 0xbbddb0edbbcf4b64U, 0xbc18629a3d934ea3U, 0xbd87e05cbc9a03c3U,
  0x3c8b37da3c923dfeU, 0x3c0a3e1e3bf2a5f4U, 0x3c6a06a9bbab7dceU, 0xbc49478abce5043aU,
  0x3bd10856bb567a37U, 0xbc798e94bc61f533U, 0x3b155f713c16d37fU, 0xbc4e6b7bbc89e9b9U,
  0xbb452f61bc6126d0U, 0xbbe93f6d3b9f3277U, 0xbcbca269bb865df9U, 0x3bb22a38bca89bddU,
  0xbaa55f1bba0358a0U, 0xbb5dd258bc1e836aU, 0x3adc8c4bbc4442fdU, 0xbbf00ab1bcac5706U,
  0xbce4b8e5ba906073U, 0xbcf772fabb9b0f58U, 0x3c497cb0bd2d7a3fU, 0xbb2bbbcebc8bbc18U,
  0xbb120b223bf0e073U, 0xbd80ac473cebcddeU, 0xbc4e3b463d537a1fU, 0x3b378b36bd07b726U,
  0x3bfd76b63c4dc798U, 0x3b051885ba49c8e3U, 0xbb84ac12bd206183U, 0xbc100a95bc412ddeU,
  0x3be377673a17e183U, 0x3c900f843bd862d2U, 0xb8b2e15b3b39905bU, 0x3c67e637bb883cb5U,
  0xbbc2d14cbd0bae13U, 0x3b817dc1ba489f77U, 0xba05a0b83c056827U, 0xbb461bb43c18bbfaU,
  0x3b8d9a493bdbd7dcU, 0x3c0c55613cc2f4e9U, 0x3b657129bb9996bcU, 0xbaf48699bd3e6ac6U,
  0x3bf2b7a03aa0f5a5U, 0x3cb00b58ba8b13c0U, 0x3d6f8c40bb9d5133U, 0x3c26cdb5bb82ab9bU,
  0x3c6639f8bccc0880U, 0xbcf9b9323c866be8U, 0x3c3d1c71bbbccd25U, 0x3c6b3bd2bd5dd72bU,
  0x3c1e0f65bc2ae569U, 0xbc7109f33cbc2781U, 0xbc0fbed63c1c0163U, 0x3a4fff9f3a5e124fU,
  0x3ae7bf2f3b4d3c7dU, 0x3db7ae17bd0e6026U, 0x3c28bbfe3a78fc19U, 0x3b5c93773b54ca2aU,
  0xbbdad4c13c507dfcU, 0xbc12dfe4bc6ff49eU, 0x3d6e8112bb206d62U, 0xbbbaf4243d3aadf2U,
  0xbc4c6f163b8622adU, 0xbc52258f3d4a0b68U, 0xbd095de3bc22212fU, 0x3ccd36c63b942973U,
  0x3caae3c3bc1b0cf3U, 0xbc79c5423b1ab4bbU, 0x3c5c9cf13ba036b4U, 0x3aeb2fb13b9e4be2U,
  0xbbd2c592394a8876U, 0x3b71b41f3bce3c48U, 0xbc124951bc3d31b1U, 0x3ca382553cb41863U,
  0x3c4c3ba139b22e6dU, 0xbbb215363bbe34feU, 0xbd31b914bd369ad2U, 0xbab303bc3ab495daU,
  0xbc4c7ca0bbb52617U, 0xbc0b7d123cdf8b3eU, 0x3c05b9fa3af42df6U, 0xbbfea24e3b988b24U,
  0x3d0f4b6aba8695e2U, 0xbcbd09d93c34ed24U, 0xb9cc61f53bc018efU, 0xbd34df7f3be607d9U,
  0xbd26c189bc55fa0cU, 0xbc072d5bbc9f3710U, 0xbc0e06813c512deaU, 0x3c67be35bae5f979U,
  0xba76b51abbe92221U, 0xbae443a63cc97285U, 0xbc966d5e3b74c629U, 0xbcb536313c2d13c6U,
  0xbc0e08f63c922477U, 0x3c77e39d3ab7db42U, 0x3cca754abb98a920U, 0x3d7cdc41bc7332c4U,
  0x39e4c384baaa52baU, 0xbb0b2a483b38c220U, 0xbc1d5cd53ba2a43dU, 0xbc3b8a80bc4b95efU,
  0x3a7fe1f5bbaae0b2U, 0xbcda1e79bc89f6d9U, 0x3c0314f4bbc45872U, 0x3c23dfaa3bc3eb25U,
  0x3d9419d93b832f84U, 0xbce1ff3d3b8ac7ccU, 0x3c5eea2b3d52310dU, 0xba7fea363c8ccbfdU,
  0xbc0324043a097850U, 0xbb991e343bbe252cU, 0x3b6fb0913ccd9b69U, 0x3bc48ddb3ca789fbU,
  0x3c7ee6333c3cc7a5U, 0x3c82c0e83cb93a8fU, 0x3c06cfc43b2fe81cU, 0xbc7ee8cabba03e8dU,
  0x3b42f130bcfcce81U, 0x3b58e3e63b375219U, 0xbc8d4e363c26dbe9U, 0x3b55fdc93ac05711U,
  0x3bd2ae08bb3756e2U, 0xbca1c1633a898334U, 0x3c375c3c3cf4b13cU, 0xbc0d9e9c3d01be5bU,
  0xbc0a8a23bc0042fcU, 0x3d009dcb3c6849ceU, 0xbd41c4dbba2767e2U, 0x3b9eae03bcb61c7fU,
  0xbb48fbcbbd189948U, 0xbc7338d23b8bc1eeU, 0x3a45df40bb39640dU, 0xba847a28bd387cd9U,
  0xba5d17cf3cba0af8U, 0x3ba875d43c77c27bU, 0xbc652f963b8d83feU, 0xbc6984323b6dd3bfU,
  0x3b91f84bba221e6bU, 0xba3ad64abd3f9024U, 0xbb8d966abb821498U, 0xbc2eb808bbdded00U,
  0xbbed7899bc7932deU, 0xbbcb229abba2cdf0U, 0xbd1497fcbc027dc7U, 0x3a71c640bb843b73U,
  0xbc19b19fbc1e6193U, 0xbb5d518ebc3300dfU, 0xbcfb2d3e3c93b0dcU, 0xbd81c4643c151d93U,
  0xbc396fb03c108816U, 0x3b0ccce73cd0a2a3U, 0x3c6feacb3c6bcedaU, 0x3a238a46bc1df8a9U,
  0xbc270a4c3bdfcccbU, 0x3c5dcbd23bb190abU, 0x3a0b40c83c7ab3d7U, 0xbce00e9abc366a21U,
  0x3c647c903a0113eeU, 0x3c851f00bc7ed0d1U, 0xbd571fb03c7a2ec0U, 0x3932b30a3a821317U,
  0x3c6167acbbaae9acU, 0x3c0f9b353a121db3U, 0xbae4dd5cbc0b721bU, 0x3ba4c2dfbb49f9d5U,
  0xbba59a7cbc75bc5fU, 0xbb54d0303c8f6ab2U, 0xbc26900fbcb3dfe4U, 0xbc897267bcaa3037U,
  0xbcd284e2bbd14d74U, 0xbc19c8c73b27bd40U, 0xbccc9255bc0c3828U, 0xbcaf7ac8bcc80613U,
  0x3b5b1c463b0eea27U, 0xbb83f8c5bccc9f9fU, 0xbbfcc87f3c72bce3U, 0x3b757dc33c9f27a2U,
  0x3c539b2dbb597c77U, 0xbb2964ec3ade2f16U, 0xbc0da933bb194f9aU, 0x3d2e2f18bd1cfc3aU,
  0xbb62fb38b9b0b69aU, 0x3cb784b93bcd86beU, 0x3c3d07e0bb9e489aU, 0xba830fdd3bdd7b2aU,
  0xbd14cb333d1bc9d6U, 0xbcdc35973d27bb32U, 0x3d9245893d4fb420U, 0xbd07d2fd3c7ea326U,
  0xbd17e74cbd63c708U, 0xbd039559bce25657U, 0xbc94107abc38193dU, 0x3ca6fbb33d7e545fU,
  0x3c3255cfbb639fbbU, 0x3c3436c73ac25d59U, 0x39074aca3dd34844U, 0xba0ff08a3bcf9e80U,
  0x3c1f00083d17cf41U, 0x3bb312603da6370dU, 0xbd1989f73b97fe71U, 0xbb513fc1bbb211d1U,
  0xbc2df3993d91a7adU, 0x3ba696593b600f4bU, 0x3ade22ebbc3c4c1eU, 0xba311492bd0af08aU,
  0xbb1c6232bc478b35U, 0xbdecb084bbace76eU, 0xbd31ade13d5109bfU, 0xbd275ef6bd9c4258U,
  0xbb8d0b873c54a61dU, 0xbdae3dd33c9db06bU, 0x3b19af133ca69fcdU, 0x3d111b553d763306U,
  0x39d3fc89bd3b2932U, 0x3aae848ebd1245cdU, 0x3aa7305a3cb8e17aU, 0xbc020837bd919526U,
  0xbd2cd95a3d4e1a97U, 0x3d2394173cf503ebU, 0x3d8fab6b3cf5c274U, 0x3d936945bb912ad5U,
  0x3d7539d93cda978fU, 0xbdafa054bd8d4730U, 0xbc7b384dba61690bU, 0x3af81d6f3ba6b05bU,
  0x3ae5cc20bd5a3ee5U, 0x3cec4c9f3b7472cfU, 0x3c8940103d308b4fU, 0x3d86dcde3ca5c2c2U,
  0xbce966d23df65064U, 0x3b1e88eb3de4c61dU, 0xbc549683bd2cf2a4U, 0x3dfa0e34bca1687eU,
  0xbba984e2bd554d7eU, 0xbc5cdc87bcdee44bU, 0xbd4dbc893b5c8652U, 0x3c616d64bcab410dU,
  0x3b2bd0bcbcd32b87U, 0x3c921f7a3c014aaaU, 0xbb8162dfbbb8e8aeU, 0xbd190c9abd300e8cU,
  0xba9d31693a75c184U, 0xbd2a7ce53bb5ac2bU, 0x3c00c5073b52ee94U, 0x3c60f72fbc363dbfU,
  0xbca28af9bb89ba41U, 0xba99abcfbd527c9eU, 0xb9d1b154bbb9499aU, 0x3d14ac52bacc9af6U,
  0x3d4e2b89bb3ac5e7U, 0x3c269f62bc3d3f98U, 0xbd93933dbd9a03a0U, 0xbd645d713d983a2dU,
  0x3cecacaabc9d2653U, 0x3c869dd93d10f412U, 0x3bbbd3cd3c89d3a5U, 0x3d0e9adb3d19ce75U,
  0xbbe722c7baaed3bdU, 0x3ac904d63d23dcdbU, 0x3cd16efcbc7500c7U, 0xbbff754c3cf1a15dU,
  0xbc6aa266bc04d450U, 0x3b5c504b3b026acaU, 0xbd0dc025bbba3c8cU, 0x3d585defbd489d98U,
  0xbc56ea16bc1e07cdU, 0xbc139d54bc570d9aU, 0x3cd27cb639bf4f74U, 0x3b331f15bc91a56dU,
  0xbd211ed9bb65a9f2U, 0x3cee2eb43ac09dd9U, 0x3c2b892d3db070b7U, 0xbca7b227bcd6d235U,
  0xbaf4170ebd362f2eU, 0xbdb327ebbcef6846U, 0x3b8abc5e3bd80c7eU, 0x3cb90b113c041cecU,
  0x3c8bcfa0bcf8d7d2U, 0xbb8989d03c29b806U, 0xbbc9e2733d02b77dU, 0x3bdc62a53d916883U,
  0xbccd76093cb8bdffU, 0xbcd4fcc43c1dc03fU, 0xbd7c6a4d3b5820f6U, 0xbd0c01ca3c87ef27U,
  0xbd2dd172bce14aedU, 0xb8138deeb89c31daU, 0xbd352a2d3b439072U, 0x3c4a57f7bd718fceU,
  0x3b91ff283b207f0fU, 0x3e0b46b5bcbfff1cU, 0x3d8fea6cbc6cab73U, 0x3d2c8831bdac4b30U,
  0x3d58a517bd5c9023U, 0xbd3f4688bc7e1272U, 0xbdf5637d3c5e25aaU, 0xbc3b78793d619df5U,
  0x3c36ebdf3d0a3769U, 0x3c1b01aebbe5f80dU, 0xba9b304cbc3c47eeU, 0xbb9ffad0bbc7bd4bU,
  0x3c6565f4bacc43b9U, 0x3c683e893cb09ebcU, 0xbcdaba18bbfea4dbU, 0x3c462b933b664f56U,
  0x3a74d805bc03d508U, 0xbcbdf6483ddc872fU, 0x3c374cda3c8b72ebU, 0x3ce65796ba29418fU,
  0x3bab6ed0badc060aU, 0x3b63ff56bb7bdb40U, 0xbdb73f8ebb2a89b5U, 0x3c3b8112bd53126cU,
  0xbcbdeaf43d471493U, 0xbd14989a3cd76d4eU, 0xbd0af729bc29d747U, 0xbd9fedb4bd41365bU,
  0xbd9ac3cb3d04726cU, 0xbbc095f23ddb9758U, 0x3d28bdbfbb9029f7U, 0x3c0c5fff3c5f1ce9U,
  0xbbee16fc3db0dc8cU, 0x3bccd21e38c14ff8U, 0xbcf9062bbb7482e4U, 0xbcfc6dc3bc9db13bU,
  0x3ca29c153ba014bbU, 0x3db516b4bc37259dU, 0xbb80e9b43dafbc00U, 0x3c572390bc28b72aU,
  0xbce6442c3bc599bdU, 0xbbb927323d54ce5fU, 0xba87ad45bae44e51U, 0xbdbaca883c3e67ecU,
  0x3cba05f3bd501c31U, 0x3cd6443abb24bd64U, 0xbcd431a3bc93158aU, 0x3b43b1f1bbdde0beU,
  0xbd65bf88bc9ab029U, 0xbce31dba3ca27e3cU, 0x3c0fad71bc224477U, 0x3cb18cb1bac180efU,
  0x3b8b4457ba4ec7d4U, 0x3c6e6d81bd536e24U, 0xbd2d8e32bb7a73f5U, 0xbd434934bd833ac6U,
  0xbd1b90fe3cd48f27U, 0x3babcb77bab8fcf4U, 0x3bf323c6b8d8528cU, 0x3e1704d7bd0d195eU,
  0xbb9a81f6bc403c5dU, 0xbceaccedbc97dbd8U, 0xbd1ab853bd577fc3U, 0xbccad0bcbc2fcda4U,
  0x3cddf526bb54619cU, 0xbc03d21e3d0f4fadU, 0x3bb67482bdb6c5d4U, 0x3c9cf5ab3d8c5108U,
  0xbcebf9f93d693fb8U, 0xbdc617593c519034U, 0x3c57fcadbd447f36U, 0xbbd492183c48c010U,
  0x3d3f83083cdd1cbeU, 0xbc52cbec3b94d739U, 0x3d0ba6543d1f03a9U, 0xbd1013543c02dfb4U,
  0x3c127f99bcd020ecU, 0x3d84ac943d8ce1bfU, 0x3d46b35d3bb6991fU, 0xbcc1a0fb3a837fe6U,
  0xbd17f154bcbffd10U, 0xbbd01bb9ba83643fU, 0x3c0956e4bc2c72b9U, 0x3c1ac6243c4b27a2U,
  0x3c9b0c94bd1ec332U, 0x3c65941a3c803c49U, 0xbceb71043c376956U, 0xbcd2b9dfbb089512U,
  0x3b7ff1e2bc5b0f76U, 0xbd30e389bbeb2129U, 0x3c6c1926bc295976U, 0x3ca695443cd34171U,
  0xbc351f3b3c0791b4U, 0xbbb80547bbae0a4aU, 0xbb7cfeb73ad3593fU, 0xba8e6ee63c3d5000U,
  0xbd0164123d001bc9U, 0x3b8d51b83b57f346U, 0x3d3c4bbf3d8e2c9cU, 0x3b9e638c3a4b6c32U,
  0x3cc31d2dbbbfbbe2U, 0xbd4d2d1a3d833a77U, 0xba936e06bb78d309U, 0xbc080560bb91fa0eU,
  0x39e230fbbb591dfcU, 0x3b9025e5bc166c62U, 0xbc9d8f04bc8be47dU, 0xbbc8e5e73cc852f2U,
  0xbd07cfaa3ce27826U, 0xbbb9258e3cdf5832U, 0x3c1814fdbc5bbdcaU, 0xbd8cb7383bbe3af7U,
  0x3d0bd5c3bd4b111bU, 0x3b3e29053c0dfd6fU, 0xbb7b3cc4b91c8d36U, 0x3c0c6d1e392a48e2U,
  0xbabe4545ba0459b9U, 0xbb1417663c4872ceU, 0x3bee5cf4bb7e54e2U, 0x3cc9b922bbefd60eU,
  0x3c1fd593b9d56091U, 0x3cce906fba229b6eU, 0xbd324369bcf90206U, 0x3b3b40ed3a977ca1U,
